{"version":"1.0","truncation":null,"padding":null,"added_tokens":[{"id":0,"special":true,"content":"[UNK]","single_word":false,"lstrip":false,"rstrip":false,"normalized":false},{"id":1,"special":true,"content":"[CLS]","single_word":false,"lstrip":false,"rstrip":false,"normalized":false},{"id":2,"special":true,"content":"[SEP]","single_word":false,"lstrip":false,"rstrip":false,"normalized":false},{"id":3,"special":true,"content":"[PAD]","single_word":false,"lstrip":false,"rstrip":false,"normalized":false},{"id":4,"special":true,"content":"[MASK]","single_word":false,"lstrip":false,"rstrip":false,"normalized":false}],"normalizer":{"type":"BertNormalizer","clean_text":true,"handle_chinese_chars":true,"strip_accents":null,"lowercase":true},"pre_tokenizer":{"type":"Whitespace"},"post_processor":null,"decoder":null,"model":{"type":"BPE","dropout":null,"unk_token":"[UNK]","continuing_subword_prefix":null,"end_of_word_suffix":null,"fuse_unk":false,"vocab":{"[UNK]":0,"[CLS]":1,"[SEP]":2,"[PAD]":3,"[MASK]":4,"'":5,"+":6,"-":7,".":8,"0":9,"1":10,"2":11,"3":12,"4":13,"5":14,"6":15,"7":16,"8":17,"9":18,"?":19,"_":20,"a":21,"b":22,"c":23,"d":24,"e":25,"f":26,"g":27,"h":28,"i":29,"j":30,"k":31,"l":32,"m":33,"n":34,"o":35,"p":36,"q":37,"r":38,"s":39,"t":40,"u":41,"v":42,"w":43,"x":44,"y":45,"z":46,"²":47,"³":48,"¹":49,"ß":50,"æ":51,"ø":52,"đ":53,"ı":54,"ł":55,"œ":56,"ȝ":57,"ə":58,"١":59,"٣":60,"٧":61,"⅚":62,"⅝":63,"ou":64,"ha":65,"ma":66,"ra":67,"la":68,"el":69,"ch":70,"hh":71,"li":72,"na":73,"ya":74,"ta":75,"3a":76,"le":77,"en":78,"bi":79,"wa":80,"fi":81,"aa":82,"et":83,"ba":84,"in":85,"sa":86,"om":87,"es":88,"er":89,"ek":90,"ii":91,"cha":92,"hhhh":93,"ti":94,"hi":95,"ka":96,"ed":97,"oo":98,"7a":99,"em":100,"si":101,"ri":102,"ech":103,"fa":104,"eb":105,"ja":106,"ki":107,"lou":108,"lah":109,"on":110,"di":111,"da":112,"ni":113,"tou":114,"al":115,"rabi":116,"ol":117,"lim":118,"m3a":119,"slim":120,"il":121,"re":122,"mou":123,"te":124,"aaaa":125,"9a":126,"hom":127,"bou":128,"rou":129,"kol":130,"ye":131,"hou":132,"ss":133,"kou":134,"kom":135,"ca":136,"me":137,"mi":138,"de":139,"bra":140,"5a":141,"iiii":142,"ne":143,"mo":144,"men":145,"3i":146,"bar":147,"hhhhhhhh":148,"be":149,"lem":150,"we":151,"is":152,"za":153,"or":154,"vo":155,"oooo":156,"ji":157,"bel":158,"th":159,"ee":160,"nes":161,"lik":162,"uu":163,"tha":164,"ken":165,"dha":166,"bech":167,"mel":168,"ff":169,"wel":170,"zi":171,"llah":172,"3la":173,"rab":174,"to":175,"bravo":176,"ta3":177,"7i":178,"ro":179,"00":180,"dh":181,"ir":182,"pa":183,"m3ak":184,"dou":185,"min":186,"ll":187,"eli":188,"allah":189,"ga":190,"chi":191,"kh":192,"lu":193,"jou":194,"kk":195,"lo":196,"slou":197,"aaaaaaaa":198,"mar":199,"fou":200,"fe":201,"rr":202,"an":203,"ent":204,"jam":205,"kha":206,"qu":207,"ama":208,"tu":209,"3an":210,"3li":211,"raj":212,"slouma":213,"lek":214,"enti":215,"wi":216,"ak":217,"mal":218,"led":219,"3b":220,"you":221,"ho":222,"koun":223,"yet":224,"mm":225,"je":226,"challah":227,"se":228,"hed":229,"clu":230,"9ou":231,"9i":232,"ya3":233,"ge":234,"ma3":235,"res":236,"nou":237,"7eb":238,"3am":239,"chou":240,"ter":241,"3ala":242,"dem":243,"a7":244,"rabbi":245,"id":246,"yar":247,"ur":248,"lh":249,"ah":250,"kif":251,"fih":252,"ena":253,"mab":254,"sou":255,"tek":256,"fil":257,"ria":258,"les":259,"haha":260,"tawa":261,"he":262,"man":263,"lla":264,"barcha":265,"tounes":266,"taw":267,"ve":268,"zou":269,"iiiiiiii":270,"it":271,"jam3i":272,"club":273,"fri":274,"ine":275,"mat":276,"fel":277,"bo":278,"gha":279,"mabrou":280,"ber":281,"nn":282,"ce":283,"no":284,"ssa":285,"bara":286,"mouch":287,"elli":288,"leb":289,"dima":290,"nis":291,"flou":292,"ben":293,"ke":294,"tt":295,"tar":296,"met":297,"dek":298,"hhh":299,"wla":300,"vi":301,"bon":302,"wa7":303,"5ir":304,"win":305,"che":306,"chay":307,"mabrouk":308,"ana":309,"far":310,"3al":311,"ar":312,"mer":313,"3ou":314,"a3":315,"uuuu":316,"lel":317,"hem":318,"kan":319,"yo":320,"ala":321,"say":322,"mala":323,"riahi":324,"bla":325,"wala":326,"mil":327,"ta7":328,"ham":329,"yes":330,"oooooooo":331,"ali":332,"do":333,"st":334,"hir":335,"ci":336,"mta3":337,"3lik":338,"na3":339,"yy":340,"net":341,"heb":342,"ba3":343,"wen":344,"ok":345,"au":346,"brabi":347,"ncha":348,"bet":349,"chkoun":350,"9o":351,"eeee":352,"ili":353,"yek":354,"let":355,"rajel":356,"inti":357,"gh":358,"ffff":359,"cha3b":360,"ko":361,"mas":362,"tra":363,"mech":364,"tna":365,"9al":366,"pres":367,"bled":368,"7ou":369,"hhhhhhhhhhhhhhhh":370,"lkol":371,"het":372,"est":373,"fik":374,"pe":375,"3ad":376,"flous":377,"con":378,"la3":379,"may":380,"que":381,"ze":382,"rak":383,"tet":384,"hal":385,"bal":386,"3le":387,"ran":388,"mon":389,"zem":390,"tta":391,"kima":392,"am":393,"bb":394,"ess":395,"zz":396,"har":397,"aaaaaaaaaaaaaaaa":398,"ik":399,"m3alem":400,"ssi":401,"mah":402,"wal":403,"wali":404,"ja3":405,"wa9":406,"ref":407,"la7":408,"tr":409,"bir":410,"jem":411,"tal":412,"so":413,"mn":414,"thi":415,"hek":416,"haw":417,"cho":418,"nchallah":419,"as":420,"tan":421,"lil":422,"te3":423,"had":424,"kkkk":425,"wah":426,"ya7":427,"a7na":428,"hhhhh":429,"bil":430,"yi":431,"tel":432,"our":433,"tah":434,"presid":435,"kal":436,"tion":437,"5dem":438,"san":439,"dik":440,"rrrr":441,"jel":442,"haka":443,"ser":444,"mek":445,"hour":446,"mais":447,"kel":448,"yed":449,"7aja":450,"president":451,"chouf":452,"tik":453,"fama":454,"wlh":455,"yah":456,"inchallah":457,"nek":458,"ab":459,"kla":460,"hak":461,"3ar":462,"fiha":463,"par":464,"7o":465,"bes":466,"3e":467,"jam3iya":468,"un":469,"tech":470,"ma7":471,"ram":472,"nah":473,"bik":474,"howa":475,"rej":476,"5i":477,"sel":478,"mes":479,"0000":480,"din":481,"ret":482,"5ali":483,"3bed":484,"7a9":485,"brav":486,"zel":487,"mak":488,"alah":489,"7ata":490,"sta":491,"com":492,"nsi":493,"ww":494,"ai":495,"po":496,"tre":497,"rah":498,"des":499,"9oul":500,"llll":501,"88":502,"kar":503,"khir":504,"oi":505,"3eb":506,"5al":507,"ble":508,"mmmm":509,"jeb":510,"m3":511,"gu":512,"sh":513,"moch":514,"m3al":515,"chwa":516,"iii":517,"wallah":518,"illi":519,"nik":520,"3lina":521,"rai":522,"9ad":523,"yel":524,"fri9i":525,"klem":526,"cou":527,"rek":528,"raw":529,"ment":530,"tunis":531,"ay":532,"sen":533,"hhhhhh":534,"med":535,"zid":536,"for":537,"tin":538,"kin":539,"sba":540,"sar":541,"tounis":542,"wer":543,"mte3":544,"va":545,"houm":546,"3in":547,"mr":548,"5ater":549,"kon":550,"enta":551,"dawla":552,"mlou":553,"incha":554,"hel":555,"ns":556,"ched":557,"bien":558,"marzou":559,"ej":560,"jam3ia":561,"5er":562,"7ad":563,"nisi":564,"houma":565,"lam":566,"ez":567,"5ou":568,"rana":569,"eur":570,"maa":571,"ia":572,"mara":573,"3lih":574,"wil":575,"walla":576,"bih":577,"merci":578,"ras":579,"bek":580,"dar":581,"aaa":582,"tara":583,"fo":584,"hedha":585,"dhi":586,"7ek":587,"lha":588,"mna":589,"lia":590,"koum":591,"ta7a":592,"mch":593,"ef":594,"n7eb":595,"wet":596,"barra":597,"yeb":598,"yech":599,"jom":600,"leh":601,"bin":602,"pour":603,"yna":604,"3ed":605,"dd":606,"war":607,"feh":608,"yar7":609,"seb":610,"bna":611,"lehi":612,"9ol":613,"tunisi":614,"koul":615,"jet":616,"hata":617,"eda":618,"100":619,"pas":620,"5ra":621,"3and":622,"yen":623,"sara":624,"3id":625,"haja":626,"houwa":627,"pro":628,"tab":629,"ml":630,"kil":631,"ma3a":632,"ach":633,"ste":634,"nin":635,"jib":636,"ra2":637,"tes":638,"wled":639,"mana":640,"ket":641,"bonne":642,"ness":643,"yer":644,"im":645,"iiiiiiiiiiiiiiii":646,"3mal":647,"jo":648,"sami":649,"raf":650,"3aw":651,"walah":652,"we7":653,"ila":654,"yem":655,"ire":656,"jdi":657,"yara":658,"20":659,"ooo":660,"sal":661,"fer":662,"twa":663,"malla":664,"hiya":665,"t7eb":666,"yeh":667,"ale":668,"qui":669,"maw":670,"ous":671,"bad":672,"m3allem":673,"77":674,"tfa":675,"tounsi":676,"lk":677,"wenti":678,"hm":679,"maak":680,"ther":681,"lna":682,"s7i":683,"go":684,"sa7a":685,"fr":686,"sah":687,"nhar":688,"hab":689,"ina":690,"nch":691,"her":692,"vrai":693,"bach":694,"7am":695,"liya":696,"nchalah":697,"mor":698,"rahou":699,"eri":700,"br":701,"lin":702,"sur":703,"tem":704,"ahna":705,"hhhhhhh":706,"pp":707,"oui":708,"fhem":709,"bch":710,"dit":711,"lahi":712,"tron":713,"9bal":714,"bbi":715,"3ay":716,"him":717,"pi":718,"nt":719,"patron":720,"don":721,"uuuuuuuu":722,"hmou":723,"t7":724,"zeb":725,"rais":726,"vive":727,"nnnn":728,"hedhi":729,"33":730,"su":731,"ten":732,"tir":733,"3ab":734,"7al":735,"sa7":736,"3o":737,"ms":738,"feha":739,"ey":740,"wra":741,"weld":742,"ba3d":743,"yezi":744,"clubi":745,"pr":746,"yal":747,"by":748,"chwaya":749,"da5":750,"fin":751,"sir":752,"jomhour":753,"3ma":754,"taraji":755,"vous":756,"ywa":757,"dam":758,"der":759,"tak":760,"nas":761,"hahahaha":762,"afri":763,"macha":764,"dega":765,"mazel":766,"wela":767,"sayeb":768,"ehi":769,"tfou":770,"3om":771,"rjel":772,"hay":773,"beb":774,"lina":775,"kem":776,"fran":777,"gou":778,"cha3eb":779,"lot":780,"koura":781,"teb":782,"wl":783,"behi":784,"youm":785,"tit":786,"saha":787,"naf":788,"den":789,"dina":790,"touma":791,"han":792,"3andou":793,"eh":794,"edi":795,"theb":796,"ra9":797,"7atta":798,"son":799,"rahi":800,"7na":801,"zar":802,"bour":803,"ul":804,"hada":805,"lm":806,"a9":807,"mach":808,"like":809,"ssss":810,"at":811,"the":812,"ker":813,"tas":814,"ad":815,"fara":816,"yji":817,"bia":818,"marzouki":819,"aaaaaaaaaaaaaaaaaaaaaaaaaaaaaaaa":820,"sse":821,"ta3mel":822,"wa7ed":823,"kbi":824,"nor":825,"b3a":826,"keya":827,"ju":828,"ta7ki":829,"s7i7":830,"m3ana":831,"aime":832,"ons":833,"3ib":834,"joueur":835,"hetha":836,"ut":837,"y7eb":838,"ver":839,"rage":840,"biya":841,"encha":842,"pu":843,"yfa":844,"3lech":845,"beh":846,"ffffffff":847,"fet":848,"weli":849,"lib":850,"plu":851,"rat":852,"page":853,"kbir":854,"gi":855,"elkol":856,"sam":857,"du":858,"zebi":859,"5ed":860,"7ba":861,"yr":862,"yka":863,"nem":864,"bouk":865,"kifech":866,"aya":867,"ave":868,"wo":869,"eeeeeeee":870,"1000":871,"char":872,"ly":873,"nheb":874,"eka":875,"bah":876,"fina":877,"akber":878,"choufou":879,"zeda":880,"barka":881,"aka":882,"t3a":883,"ere":884,"nsa":885,"af":886,"ba7":887,"degage":888,"re9":889,"reb":890,"hadha":891,"mela":892,"inta":893,"brabbi":894,"friki":895,"tsa":896,"tla3":897,"yaa":898,"hia":899,"fech":900,"africa":901,"taa":902,"kam":903,"mma":904,"alik":905,"rya":906,"ux":907,"bit":908,"mik":909,"tji":910,"fihom":911,"tunisie":912,"oooooooooooooooo":913,"ty":914,"co":915,"gal":916,"baa":917,"ema":918,"ant":919,"a7la":920,"rit":921,"une":922,"maj":923,"akther":924,"plus":925,"ib":926,"zin":927,"na9":928,"riya":929,"kouma":930,"ra2is":931,"e7":932,"sv":933,"por":934,"lazem":935,"7ab":936,"8888":937,"sin":938,"amin":939,"dja":940,"mahou":941,"lebled":942,"rfou":943,"tka":944,"fi9":945,"bellehi":946,"ysa":947,"hana":948,"lih":949,"boss":950,"bl":951,"mem":952,"biha":953,"dan":954,"mout":955,"wej":956,"belehi":957,"kkkkkkkk":958,"avec":959,"jaw":960,"3ak":961,"eni":962,"ye7":963,"ssem":964,"vraiment":965,"e3":966,"ta9":967,"rik":968,"9a3":969,"svp":970,"mu":971,"ray":972,"tour":973,"tkoun":974,"bina":975,"gar":976,"jah":977,"tres":978,"lak":979,"dim":980,"ya3mel":981,"3andi":982,"siya":983,"10":984,"wa9t":985,"rani":986,"m3ah":987,"jour":988,"a5":989,"chan":990,"jam3":991,"bli":992,"fl":993,"mka":994,"edh":995,"khou":996,"dis":997,"7as":998,"te7":999,"yez":1000,"donc":1001,"tout":1002,"toula":1003,"rrrrrrrr":1004,"rou7ek":1005,"bu":1006,"3et":1007,"africain":1008,"ela":1009,"mani":1010,"chno":1011,"jdid":1012,"awel":1013,"mha":1014,"ban":1015,"elle":1016,"tf":1017,"fikom":1018,"9alou":1019,"3likom":1020,"kbira":1021,"l3a":1022,"rin":1023,"ler":1024,"jam3e":1025,"bbbb":1026,"sid":1027,"rib":1028,"l9a":1029,"nech":1030,"kolna":1031,"up":1032,"3andek":1033,"hatha":1034,"yab":1035,"teh":1036,"ih":1037,"hethi":1038,"lefri9i":1039,"jal":1040,"det":1041,"msa":1042,"mej":1043,"sem":1044,"neya":1045,"dhou":1046,"yma":1047,"mt":1048,"sti":1049,"boub":1050,"klay":1051,"fa9":1052,"niya":1053,"courage":1054,"fla":1055,"ger":1056,"ich":1057,"lit":1058,"tro":1059,"enty":1060,"ya3ti":1061,"nahdha":1062,"snin":1063,"3ich":1064,"ton":1065,"jab":1066,"boun":1067,"ba3ed":1068,"3el":1069,"fek":1070,"tttt":1071,"3adi":1072,"marbou":1073,"jey":1074,"e5dem":1075,"3lihom":1076,"kalb":1077,"ghir":1078,"lezem":1079,"ye5i":1080,"joum":1081,"f9":1082,"tari":1083,"fach":1084,"nia":1085,"llllllll":1086,"shi":1087,"jeh":1088,"5o":1089,"9oulou":1090,"8a":1091,"tef":1092,"jbou":1093,"yh":1094,"kir":1095,"yelzem":1096,"jen":1097,"per":1098,"mos":1099,"far5":1100,"hhhhhhhhhhhhhhhhhhhhhhhhhhhhhhhh":1101,"7it":1102,"mra":1103,"ts":1104,"omek":1105,"ans":1106,"atta":1107,"blad":1108,"7ay":1109,"toi":1110,"dheb":1111,"khi":1112,"alf":1113,"7ib":1114,"king":1115,"la3bed":1116,"bat":1117,"hez":1118,"zouz":1119,"00000000":1120,"cli":1121,"ma3ad":1122,"lab":1123,"3asba":1124,"bor":1125,"llh":1126,"bro":1127,"zzzz":1128,"bn":1129,"if":1130,"mchi":1131,"non":1132,"nchalla":1133,"5edma":1134,"sha":1135,"t9oul":1136,"o5ra":1137,"ra7":1138,"boutoula":1139,"wou":1140,"nak":1141,"khal":1142,"khali":1143,"tinu":1144,"chem":1145,"rec":1146,"continu":1147,"alex":1148,"tv":1149,"tana":1150,"rasmi":1151,"aw":1152,"ida":1153,"yk":1154,"rap":1155,"sion":1156,"vide":1157,"jam3eya":1158,"gg":1159,"be7":1160,"forza":1161,"we7ed":1162,"o5":1163,"3ada":1164,"chiboub":1165,"nchlh":1166,"99":1167,"del":1168,"tk":1169,"equi":1170,"bouh":1171,"bouna":1172,"and":1173,"baba":1174,"walahi":1175,"heka":1176,"bravoooo":1177,"mmmmmmmm":1178,"lotfi":1179,"a9wa":1180,"video":1181,"pla":1182,"big":1183,"famma":1184,"ssou":1185,"inchalah":1186,"chnowa":1187,"nar":1188,"has":1189,"ta7ana":1190,"end":1191,"kamel":1192,"ya3tik":1193,"5d":1194,"mage":1195,"cef":1196,"nchala":1197,"ex":1198,"eta":1199,"zina":1200,"raby":1201,"love":1202,"ya7ki":1203,"four":1204,"kor":1205,"nayek":1206,"cha3":1207,"gran":1208,"law":1209,"bed":1210,"len":1211,"sed":1212,"2a":1213,"jay":1214,"match":1215,"ta5":1216,"yt":1217,"maz":1218,"jami":1219,"aaaaaa":1220,"koll":1221,"b1":1222,"ykoun":1223,"sad":1224,"meh":1225,"moncef":1226,"jam3ya":1227,"deb":1228,"ye7i":1229,"tfouh":1230,"mri":1231,"t5a":1232,"ru":1233,"masa":1234,"rou7":1235,"3l":1236,"kleb":1237,"lclub":1238,"of":1239,"wensa":1240,"hat":1241,"set":1242,"3a9":1243,"9at":1244,"9a7ba":1245,"wwww":1246,"normal":1247,"clip":1248,"bsara":1249,"hba":1250,"leha":1251,"winti":1252,"ta7an":1253,"yef":1254,"hhhhhhhhh":1255,"top":1256,"yos":1257,"gra":1258,"mla":1259,"kifek":1260,"hakka":1261,"mari":1262,"3ana":1263,"wata":1264,"av":1265,"7ar":1266,"tous":1267,"neha":1268,"eee":1269,"dr":1270,"raja3":1271,"yar7mou":1272,"labes":1273,"khater":1274,"akbar":1275,"y7":1276,"le7":1277,"ene":1278,"enna":1279,"wak":1280,"mez":1281,"hahaha":1282,"yyyy":1283,"joumhour":1284,"tor":1285,"bas":1286,"ne9":1287,"sor":1288,"hani":1289,"tayara":1290,"ing":1291,"car":1292,"ation":1293,"ys":1294,"zok":1295,"ona":1296,"ple":1297,"tch":1298,"yan":1299,"tif":1300,"beau":1301,"yarhmou":1302,"aid":1303,"eu":1304,"fes":1305,"kina":1306,"hor":1307,"ta3ref":1308,"rajil":1309,"y5a":1310,"hadi":1311,"jan":1312,"hon":1313,"tala":1314,"dir":1315,"ghal":1316,"fe9":1317,"gui":1318,"jouer":1319,"a7sen":1320,"equipe":1321,"yn":1322,"chnou":1323,"7id":1324,"flouss":1325,"bi3":1326,"ette":1327,"daw":1328,"wa7dek":1329,"poli":1330,"bha":1331,"yya":1332,"3leh":1333,"kont":1334,"na7":1335,"hhhhhhhhhh":1336,"ahla":1337,"7ram":1338,"krou":1339,"cha5":1340,"rouhek":1341,"thar":1342,"sanfara":1343,"7ka":1344,"iji":1345,"yat":1346,"enchallah":1347,"5ay":1348,"ck":1349,"sab":1350,"7ala":1351,"thel":1352,"echa3b":1353,"ifa":1354,"pri":1355,"twali":1356,"kolha":1357,"mich":1358,"a3mel":1359,"chof":1360,"y3a":1361,"zo":1362,"ye5dem":1363,"marra":1364,"201":1365,"thou":1366,"yin":1367,"teur":1368,"n7ebou":1369,"ct":1370,"jr":1371,"okh":1372,"ma5":1373,"tat":1374,"sia":1375,"9anet":1376,"wella":1377,"monta":1378,"hadhi":1379,"5alli":1380,"ani":1381,"nd":1382,"yak":1383,"tahki":1384,"mte":1385,"miboun":1386,"za3ma":1387,"to9":1388,"3liha":1389,"film":1390,"sli":1391,"naj":1392,"taf":1393,"lez":1394,"barna":1395,"barnem":1396,"cc":1397,"rahom":1398,"yas":1399,"maf":1400,"touna":1401,"3andha":1402,"3amlou":1403,"vu":1404,"ma9":1405,"3ali":1406,"weh":1407,"jit":1408,"milli":1409,"5ouya":1410,"trou":1411,"e9":1412,"eya":1413,"thawra":1414,"grand":1415,"iir":1416,"d5":1417,"hdem":1418,"rjou":1419,"wahed":1420,"denya":1421,"echa":1422,"hech":1423,"i7":1424,"kn":1425,"thom":1426,"hatta":1427,"mezel":1428,"chance":1429,"wes":1430,"dher":1431,"ado":1432,"cpr":1433,"iss":1434,"yhi":1435,"lef":1436,"ghar":1437,"famech":1438,"heya":1439,"m3ek":1440,"akh":1441,"ghi":1442,"hy":1443,"nat":1444,"fa3":1445,"bravobravo":1446,"cu":1447,"rar":1448,"clubiste":1449,"continuation":1450,"lat":1451,"djabou":1452,"t7a":1453,"tay":1454,"bihom":1455,"yemchi":1456,"kle":1457,"saber":1458,"dak":1459,"belle":1460,"wa7na":1461,"y3":1462,"yons":1463,"nab":1464,"5abet":1465,"tni":1466,"chy":1467,"mis":1468,"yar7am":1469,"hmd":1470,"hathi":1471,"beha":1472,"wallahi":1473,"dwa":1474,"ner":1475,"chbik":1476,"kaf":1477,"kid":1478,"beli":1479,"9adech":1480,"mahouch":1481,"hich":1482,"uuu":1483,"az":1484,"int":1485,"dhar":1486,"jaa":1487,"wakil":1488,"rou7ou":1489,"walli":1490,"saw":1491,"mena":1492,"bk":1493,"e5er":1494,"sl":1495,"tla":1496,"le5er":1497,"sa3":1498,"houa":1499,"n7":1500,"sna":1501,"beji":1502,"fff":1503,"douk":1504,"fu":1505,"wrabi":1506,"yit":1507,"lech":1508,"ens":1509,"essa":1510,"sser":1511,"chey":1512,"yeser":1513,"dech":1514,"hya":1515,"chek":1516,"quoi":1517,"7777":1518,"elha":1519,"titre":1520,"kifeh":1521,"kkk":1522,"nous":1523,"jme":1524,"mta":1525,"hid":1526,"fad":1527,"mina":1528,"sa7bi":1529,"hra":1530,"tique":1531,"belna":1532,"wn":1533,"sil":1534,"tofla":1535,"hedi":1536,"wed":1537,"bellahi":1538,"yezzi":1539,"7k":1540,"loul":1541,"000":1542,"benzar":1543,"lan":1544,"9et":1545,"aj":1546,"mcha":1547,"mata":1548,"raho":1549,"3alem":1550,"fehri":1551,"alexis":1552,"yheb":1553,"farej":1554,"touch":1555,"iwa":1556,"yda":1557,"wa7da":1558,"goo":1559,"nh":1560,"kat":1561,"fah":1562,"jar":1563,"louch":1564,"deja":1565,"9od":1566,"dislike":1567,"ini":1568,"kari":1569,"9ar":1570,"wa9tech":1571,"ma3adech":1572,"wech":1573,"lifri9i":1574,"bab":1575,"zan":1576,"attaqu":1577,"noun":1578,"marbou7a":1579,"adore":1580,"i3":1581,"lyoum":1582,"bich":1583,"mour":1584,"homch":1585,"3idek":1586,"dhal":1587,"comme":1588,"na7na":1589,"hhhhhhhhhhh":1590,"contre":1591,"aaaaaaaaaaaaaaaaaaaaaaaaaaaaaaaaaaaaaaaaaaaaaaaaaaaaaaaaaaaaaaaa":1592,"7et":1593,"7mou":1594,"b5ir":1595,"kra":1596,"alg":1597,"barek":1598,"yesser":1599,"parc":1600,"3333":1601,"clubisti":1602,"twensa":1603,"chok":1604,"entouma":1605,"mouna":1606,"respe":1607,"keyet":1608,"enchalah":1609,"fed":1610,"jj":1611,"jm":1612,"haya":1613,"lad":1614,"hib":1615,"ri9":1616,"ja7":1617,"yar7em":1618,"7keya":1619,"chn":1620,"cher":1621,"omha":1622,"m3alim":1623,"mosta":1624,"slo":1625,"mada":1626,"ennes":1627,"walh":1628,"menta":1629,"weldi":1630,"3ba":1631,"9ra":1632,"te5dem":1633,"aaaaa":1634,"zeyed":1635,"dine":1636,"e5":1637,"cham":1638,"sidi":1639,"9aw":1640,"a3la":1641,"saa":1642,"cab":1643,"kho":1644,"notre":1645,"saybou":1646,"gna":1647,"i5":1648,"rass":1649,"ille":1650,"iiiii":1651,"wehed":1652,"a3ti":1653,"chomage":1654,"8ir":1655,"ded":1656,"fdha":1657,"tw":1658,"eme":1659,"ssel":1660,"nour":1661,"yarham":1662,"jdida":1663,"nabara":1664,"sala":1665,"fait":1666,"toul":1667,"iiiiii":1668,"zim":1669,"meme":1670,"f9ek":1671,"brou":1672,"nta":1673,"os":1674,"laa":1675,"3at":1676,"nich":1677,"rabii":1678,"thab":1679,"meri":1680,"l3":1681,"zayed":1682,"aman":1683,"amine":1684,"i7eb":1685,"jer":1686,"t3":1687,"zawali":1688,"mella":1689,"anni":1690,"mnin":1691,"foo":1692,"haz":1693,"ence":1694,"ye3":1695,"mili":1696,"cla":1697,"dra":1698,"wma":1699,"raba":1700,"raji":1701,"rif":1702,"ya3mlou":1703,"web":1704,"la9":1705,"menha":1706,"jibou":1707,"shih":1708,"8al":1709,"kee":1710,"tach":1711,"wasel":1712,"faw":1713,"7ik":1714,"joulia":1715,"nos":1716,"nnnnnnnn":1717,"tich":1718,"kit":1719,"welli":1720,"bravoo":1721,"good":1722,"ction":1723,"nha":1724,"ps":1725,"bassem":1726,"yena":1727,"rod":1728,"hamed":1729,"4a":1730,"loo":1731,"lol":1732,"yon":1733,"belahi":1734,"zah":1735,"3ez":1736,"joueret":1737,"oma":1738,"zer":1739,"las":1740,"ssen":1741,"parti":1742,"7ez":1743,"rye7i":1744,"rad":1745,"ement":1746,"alla":1747,"9a3ed":1748,"kelma":1749,"sma3":1750,"3as":1751,"meli":1752,"touness":1753,"sol":1754,"tbarka":1755,"math":1756,"cheb":1757,"tam":1758,"bikom":1759,"louma":1760,"boul":1761,"kher":1762,"yo5":1763,"enta5":1764,"marzou9i":1765,"sahbi":1766,"3en":1767,"awled":1768,"jed":1769,"ked":1770,"maya":1771,"etha":1772,"chaine":1773,"oon":1774,"7ak":1775,"hhhhhhhhhhhh":1776,"7ot":1777,"yechfih":1778,"8ali":1779,"fy":1780,"gla":1781,"zed":1782,"mad":1783,"lifriki":1784,"wa3":1785,"kamcha":1786,"ath":1787,"sek":1788,"salem":1789,"m3akom":1790,"new":1791,"t7in":1792,"my":1793,"mle":1794,"ete":1795,"etou":1796,"bouch":1797,"rouh":1798,"franca":1799,"attaquant":1800,"rwe7":1801,"machallah":1802,"temchi":1803,"oul":1804,"natir":1805,"jai":1806,"mit":1807,"menek":1808,"said":1809,"omou":1810,"ma3neha":1811,"khouya":1812,"bsara7a":1813,"7or":1814,"css":1815,"raa":1816,"rakom":1817,"leclub":1818,"wa7id":1819,"youn":1820,"tnajem":1821,"sanfour":1822,"3mor":1823,"lhom":1824,"fat":1825,"ria7i":1826,"wna":1827,"fan":1828,"honte":1829,"lb":1830,"lma":1831,"nchoufou":1832,"tchouf":1833,"um":1834,"wli":1835,"ense":1836,"ins":1837,"ghalia":1838,"winou":1839,"keep":1840,"oh":1841,"fare":1842,"yo9":1843,"trava":1844,"tal9a":1845,"88888888":1846,"ij":1847,"wat":1848,"fak":1849,"jouliya":1850,"ya3ref":1851,"veau":1852,"klam":1853,"coup":1854,"iiiiiiiiiiiiiiiiiiiiiiiiiiiiiiii":1855,"ta7ya":1856,"lmou":1857,"laz":1858,"lee":1859,"touns":1860,"bras":1861,"belek":1862,"ma7lek":1863,"55":1864,"akid":1865,"did":1866,"9ab":1867,"kouki":1868,"9i9a":1869,"bravooo":1870,"dddd":1871,"fem":1872,"ita":1873,"ija":1874,"mwa":1875,"hhhhhhhhhhhhhh":1876,"zabour":1877,"oooooo":1878,"wahra":1879,"isa":1880,"pet":1881,"sbe7":1882,"vv":1883,"yd":1884,"ya5":1885,"em3ak":1886,"5ar":1887,"zab":1888,"ika":1889,"tri":1890,"tjib":1891,"da9":1892,"def":1893,"rrr":1894,"anta":1895,"raj3ou":1896,"badel":1897,"30":1898,"elna":1899,"naw":1900,"rina":1901,"touh":1902,"benzarti":1903,"algeri":1904,"bjeh":1905,"rf":1906,"tli":1907,"ybi":1908,"le9":1909,"etna":1910,"hamdou":1911,"iya":1912,"pl":1913,"wle":1914,"ych":1915,"lement":1916,"bahi":1917,"m3ahom":1918,"menhom":1919,"dhe":1920,"mine":1921,"just":1922,"3d":1923,"zbou":1924,"louled":1925,"nikom":1926,"maryou":1927,"3maltou":1928,"juste":1929,"naa":1930,"7at":1931,"dakh":1932,"nef":1933,"na3ref":1934,"yekhi":1935,"politique":1936,"hala":1937,"hach":1938,"neh":1939,"ghali":1940,"travail":1941,"mlo":1942,"chkon":1943,"3amel":1944,"fir":1945,"fici":1946,"nit":1947,"yehi":1948,"ooooo":1949,"roj":1950,"tarja3":1951,"farjou":1952,"alih":1953,"respect":1954,"haa":1955,"sai":1956,"hit":1957,"fadh":1958,"illa":1959,"vie":1960,"wini":1961,"inchalla":1962,"uuuuuuuuuuuuuuuu":1963,"trop":1964,"mahich":1965,"entra":1966,"sty":1967,"morta":1968,"bt":1969,"hka":1970,"chniya":1971,"aal":1972,"day":1973,"nee":1974,"mahlek":1975,"sob":1976,"chnouwa":1977,"foot":1978,"9ef":1979,"wy":1980,"wan":1981,"eth":1982,"ommek":1983,"iik":1984,"hik":1985,"mo5":1986,"zaweli":1987,"kolou":1988,"jri":1989,"nchouf":1990,"ouh":1991,"ya5i":1992,"erjel":1993,"dhaher":1994,"ta3mlou":1995,"khed":1996,"homa":1997,"wlad":1998,"commenta":1999,"inchala":2000,"joueurs":2001,"sloma":2002,"max":2003,"leya":2004,"hiwar":2005,"bouha":2006,"stade":2007,"hil":2008,"toun":2009,"ssar":2010,"mechi":2011,"tab9a":2012,"goul":2013,"behya":2014,"neb":2015,"us":2016,"habi":2017,"sif":2018,"mim":2019,"3leha":2020,"surtout":2021,"rya7i":2022,"gol":2023,"lka":2024,"madem":2025,"alina":2026,"jemla":2027,"ssssssss":2028,"manich":2029,"3ek":2030,"bhom":2031,"gre":2032,"yched":2033,"ele":2034,"aala":2035,"signa":2036,"jamais":2037,"menou":2038,"ors":2039,"amma":2040,"yahki":2041,"barnamej":2042,"50":2043,"9wi":2044,"bya":2045,"hwa":2046,"chnia":2047,"kab":2048,"7an":2049,"touha":2050,"chid":2051,"ahsen":2052,"mille":2053,"na3rfou":2054,"bravoooooooo":2055,"da5el":2056,"publi":2057,"9bel":2058,"cor":2059,"dom":2060,"yik":2061,"ha9":2062,"enes":2063,"omk":2064,"hhhhhhhhhhhhh":2065,"9it":2066,"a3lik":2067,"suis":2068,"likom":2069,"kara":2070,"mawjou":2071,"hd":2072,"lt":2073,"n9o":2074,"tcha":2075,"wya":2076,"ycha":2077,"oum":2078,"ti7":2079,"9odem":2080,"blech":2081,"libya":2082,"idha":2083,"jmou":2084,"mli":2085,"sr":2086,"wek":2087,"mag":2088,"machi":2089,"3awen":2090,"kais":2091,"mohamed":2092,"dho":2093,"sayer":2094,"walit":2095,"3andhom":2096,"7el":2097,"joon":2098,"sn":2099,"libled":2100,"baya":2101,"tih":2102,"moutou":2103,"mmm":2104,"ouk":2105,"hah":2106,"3alik":2107,"sais":2108,"kolhom":2109,"meta":2110,"blas":2111,"hamdi":2112,"wahdek":2113,"5in":2114,"5sara":2115,"j3ou":2116,"yba":2117,"matha":2118,"zidou":2119,"na3mou":2120,"offici":2121,"hna":2122,"lkom":2123,"oun":2124,"elmou":2125,"saf":2126,"omkom":2127,"faha":2128,"reu":2129,"deh":2130,"3iya":2131,"wena":2132,"dandouk":2133,"champi":2134,"ass":2135,"bkhir":2136,"som":2137,"ouch":2138,"7ach":2139,"9anoun":2140,"ye5":2141,"tos":2142,"anti":2143,"tele":2144,"7keyet":2145,"sfa":2146,"tn":2147,"t3ich":2148,"najem":2149,"iit":2150,"fal":2151,"viva":2152,"s7i7a":2153,"jours":2154,"bbbbbbbb":2155,"bnet":2156,"flo":2157,"ira":2158,"o9":2159,"t9a":2160,"chabeb":2161,"one":2162,"m3aak":2163,"yesa":2164,"mir":2165,"beya":2166,"heda":2167,"tement":2168,"hand":2169,"zboubna":2170,"hk":2171,"lmo":2172,"nka":2173,"mafi":2174,"mass":2175,"rachwa":2176,"leflous":2177,"bay":2178,"7ajet":2179,"ne7":2180,"tho":2181,"gati":2182,"sour":2183,"llahi":2184,"kef":2185,"wahda":2186,"ryahi":2187,"recru":2188,"bni":2189,"ren":2190,"slem":2191,"mai":2192,"mata3":2193,"chad":2194,"kolkom":2195,"na3mlou":2196,"wenta":2197,"bledna":2198,"twansa":2199,"b3adh":2200,"musi":2201,"ell":2202,"chbih":2203,"kach":2204,"faire":2205,"dayma":2206,"rouhou":2207,"me3":2208,"bel7a9":2209,"to5":2210,"entom":2211,"ma3na":2212,"ineur":2213,"sayed":2214,"yehdi":2215,"jabri":2216,"7in":2217,"ged":2218,"rom":2219,"oula":2220,"mafamech":2221,"na7i":2222,"3az":2223,"3ayel":2224,"fila":2225,"fi9ou":2226,"dia":2227,"deg":2228,"rok":2229,"jeya":2230,"maalem":2231,"3awnou":2232,"ywaf9ek":2233,"idara":2234,"dna":2235,"wjou":2236,"ykha":2237,"raii":2238,"nati":2239,"saye":2240,"riba":2241,"rouf":2242,"ance":2243,"yetraba":2244,"yarhem":2245,"billehi":2246,"ces":2247,"esa":2248,"mk":2249,"n9oul":2250,"bali":2251,"chah":2252,"siyes":2253,"ri3":2254,"all":2255,"alors":2256,"tefhem":2257,"homme":2258,"lll":2259,"fou9":2260,"na3ma":2261,"3malt":2262,"19":2263,"att":2264,"erajel":2265,"ikoun":2266,"md":2267,"chaab":2268,"7aj":2269,"reau":2270,"mia":2271,"yetna":2272,"waldik":2273,"messa":2274,"meskina":2275,"bent":2276,"hram":2277,"mla3":2278,"ndou":2279,"ses":2280,"yha":2281,"rasou":2282,"3aj":2283,"rij":2284,"koulou":2285,"berasmi":2286,"jim":2287,"je7":2288,"3awed":2289,"barnemej":2290,"abon":2291,"jor":2292,"koo":2293,"m3ou":2294,"massa":2295,"etoi":2296,"kalem":2297,"niveau":2298,"3inek":2299,"llllllllllllllll":2300,"3mel":2301,"9rib":2302,"pon":2303,"naya":2304,"til":2305,"kiw":2306,"dara":2307,"rou3":2308,"ya3ni":2309,"peau":2310,"from":2311,"norma":2312,"aidek":2313,"style":2314,"feli":2315,"gel":2316,"rbi":2317,"sy":2318,"tched":2319,"wem":2320,"sare9":2321,"thama":2322,"7i7":2323,"wissem":2324,"makech":2325,"tounsia":2326,"etoile":2327,"cette":2328,"ry":2329,"wt":2330,"wis":2331,"haj":2332,"yarah":2333,"bak":2334,"kifou":2335,"moi":2336,"be3":2337,"hahah":2338,"wahna":2339,"wild":2340,"projet":2341,"entraineur":2342,"93ad":2343,"abonne":2344,"manou":2345,"rach":2346,"rades":2347,"nass":2348,"3ale":2349,"ensen":2350,"wadi":2351,"errajel":2352,"faut":2353,"kich":2354,"5atr":2355,"yarja3":2356,"3oud":2357,"aussi":2358,"porte":2359,"bureau":2360,"jaime":2361,"sfax":2362,"lfa":2363,"mams":2364,"za7":2365,"khra":2366,"lowa":2367,"yyy":2368,"mte3ek":2369,"tari5":2370,"5dmou":2371,"ite":2372,"pffffffff":2373,"laha":2374,"lila":2375,"wadh":2376,"fida":2377,"tira":2378,"kad":2379,"3ik":2380,"dha7":2381,"3ando":2382,"llam":2383,"flousek":2384,"wa9tha":2385,"akahaw":2386,"kkkkkkkkkkkkkkkk":2387,"karim":2388,"3dou":2389,"5r":2390,"lbled":2391,"wrak":2392,"mam":2393,"tali":2394,"dans":2395,"nidhal":2396,"3amla":2397,"3oun":2398,"contra":2399,"yelz":2400,"coupe":2401,"ma3ak":2402,"3od":2403,"versa":2404,"signaler":2405,"icha":2406,"n9ol":2407,"pffff":2408,"ella":2409,"ya9":2410,"kila":2411,"ya3tek":2412,"masla7":2413,"7oukouma":2414,"m3alm":2415,"mnayek":2416,"person":2417,"korsi":2418,"9lou":2419,"bhe":2420,"gho":2421,"ix":2422,"lba":2423,"walet":2424,"sak":2425,"dema":2426,"ires":2427,"ma3k":2428,"boy":2429,"point":2430,"tunisien":2431,"france":2432,"y7ebou":2433,"hasbouna":2434,"kafon":2435,"ft":2436,"seli":2437,"wha":2438,"ywali":2439,"y9oul":2440,"kaleb":2441,"de5":2442,"ghneya":2443,"masta":2444,"mochkla":2445,"zeby":2446,"b3ath":2447,"3raf":2448,"bhim":2449,"l7a9":2450,"nawa":2451,"taha":2452,"sa5":2453,"sawer":2454,"omo":2455,"sieur":2456,"deyma":2457,"vote":2458,"yarh":2459,"no9":2460,"arri":2461,"9albi":2462,"msg":2463,"mazal":2464,"a9al":2465,"cv":2466,"cer":2467,"cri":2468,"ghou":2469,"itha":2470,"spor":2471,"tol":2472,"zet":2473,"chkou":2474,"touni":2475,"la7keya":2476,"tant":2477,"nafs":2478,"jami3":2479,"zantour":2480,"bda":2481,"iheb":2482,"yta":2483,"mami":2484,"liha":2485,"sib":2486,"houlek":2487,"entre":2488,"wa9et":2489,"bledi":2490,"pivo":2491,"zebbi":2492,"fok":2493,"ndi":2494,"aak":2495,"rid":2496,"kim":2497,"te9":2498,"yefhem":2499,"masha":2500,"yarat":2501,"jbouj":2502,"watani":2503,"fsa":2504,"frou":2505,"hla":2506,"sraf":2507,"trab":2508,"radi":2509,"laf":2510,"yach":2511,"ya7i":2512,"ta7i":2513,"enou":2514,"chalah":2515,"tia":2516,"fadina":2517,"dab":2518,"boula":2519,"sss":2520,"5alik":2521,"ta3mil":2522,"techri":2523,"9olt":2524,"samir":2525,"jenjoon":2526,"7kom":2527,"wir":2528,"mafama":2529,"taja":2530,"tation":2531,"waj":2532,"inter":2533,"rous":2534,"houch":2535,"than":2536,"toz":2537,"kora":2538,"zzzzzzzz":2539,"gggg":2540,"recrutement":2541,"7ok":2542,"get":2543,"esh":2544,"rien":2545,"loum":2546,"dafi":2547,"ssed":2548,"defi":2549,"3ia":2550,"amana":2551,"hezou":2552,"stes":2553,"tahya":2554,"mkach":2555,"avant":2556,"beaucoup":2557,"7yet":2558,"9el":2559,"kbal":2560,"mzi":2561,"mtaa":2562,"tl":2563,"tba":2564,"leur":2565,"bala":2566,"bayou":2567,"da3":2568,"m3aha":2569,"zada":2570,"fehom":2571,"ppy":2572,"nafti":2573,"rrrrrrrrrrrrrrrr":2574,"0000000000000000":2575,"fare5":2576,"khedma":2577,"5id":2578,"b3id":2579,"ec":2580,"hu":2581,"ie":2582,"nel":2583,"makh":2584,"lena":2585,"enfin":2586,"inna":2587,"ont":2588,"5as":2589,"doc":2590,"stor":2591,"nahda":2592,"3andna":2593,"yara7mou":2594,"maryoul":2595,"grou":2596,"gram":2597,"l9":2598,"hadh":2599,"yad":2600,"sim":2601,"nice":2602,"iiiiiii":2603,"3ichou":2604,"zanatir":2605,"thez":2606,"para":2607,"akthar":2608,"iiiiiiiiii":2609,"nchalh":2610,"chway":2611,"3aych":2612,"9a3da":2613,"yab9a":2614,"mchit":2615,"200":2616,"era":2617,"gent":2618,"km":2619,"happy":2620,"famille":2621,"mous":2622,"dhaw":2623,"minhom":2624,"ra2iss":2625,"3ayla":2626,"ywaf":2627,"marbouha":2628,"okhra":2629,"ata":2630,"im3ak":2631,"jma3":2632,"kek":2633,"rwa7":2634,"tnek":2635,"lay":2636,"la7a":2637,"line":2638,"nadh":2639,"salam":2640,"chab":2641,"kas":2642,"sik":2643,"m3alam":2644,"capo":2645,"ziz":2646,"ta3ti":2647,"ro7ek":2648,"yia":2649,"besh":2650,"gue":2651,"tini":2652,"sa7a7":2653,"3omrou":2654,"adi":2655,"are":2656,"ges":2657,"nr":2658,"tii":2659,"haf":2660,"yaaa":2661,"wach":2662,"wana":2663,"iid":2664,"ook":2665,"death":2666,"3lach":2667,"role":2668,"leklem":2669,"thi9a":2670,"retour":2671,"pppp":2672,"mariem":2673,"nji":2674,"zga":2675,"lihom":2676,"lekom":2677,"te5":2678,"miss":2679,"bark":2680,"weldik":2681,"wila":2682,"resul":2683,"lebes":2684,"mas2":2685,"sans":2686,"jebni":2687,"3omri":2688,"9a3din":2689,"fekra":2690,"chokran":2691,"officiel":2692,"bre":2693,"dz":2694,"dmou":2695,"hr":2696,"krah":2697,"nu":2698,"hhom":2699,"yare":2700,"3ach":2701,"enya":2702,"billahi":2703,"salah":2704,"emi":2705,"rima":2706,"toujours":2707,"hhhhhhhhhhhhhhh":2708,"jich":2709,"quel":2710,"youtu":2711,"hot":2712,"monsieur":2713,"tttttttt":2714,"mehri":2715,"saison":2716,"b7ou":2717,"tnik":2718,"t7ib":2719,"tahana":2720,"hihi":2721,"sit":2722,"nesta":2723,"note":2724,"arbi":2725,"blasa":2726,"meskin":2727,"3ini":2728,"machrou3":2729,"pub":2730,"yonsrek":2731,"daa":2732,"ew":2733,"ejam3iya":2734,"i9":2735,"pou":2736,"twalli":2737,"bira":2738,"9as":2739,"rou7ik":2740,"sseb":2741,"melli":2742,"minha":2743,"ques":2744,"ard":2745,"abed":2746,"ynajem":2747,"dinar":2748,"eeeeeeeeeeeeeeee":2749,"mostawa":2750,"kes":2751,"l7a":2752,"tfi":2753,"7ana":2754,"ilkol":2755,"rea":2756,"yee":2757,"be9i":2758,"anna":2759,"ture":2760,"wij":2761,"chef":2762,"lkolna":2763,"nahna":2764,"dhif":2765,"frere":2766,"enchala":2767,"ya3tikom":2768,"9odret":2769,"anniversa":2770,"message":2771,"a5er":2772,"b3":2773,"dro":2774,"l7":2775,"lya":2776,"mom":2777,"nti":2778,"tom":2779,"tlou":2780,"ui":2781,"lich":2782,"chapeau":2783,"7abi":2784,"allh":2785,"olo":2786,"voir":2787,"dhel":2788,"dhek":2789,"douh":2790,"amal":2791,"tawfi9":2792,"a3mlou":2793,"trabel":2794,"nessma":2795,"machari3":2796,"3bou":2797,"blo":2798,"ftha":2799,"nmout":2800,"nenta5":2801,"rj":2802,"tzid":2803,"chel":2804,"chneya":2805,"tahiya":2806,"baki":2807,"ekel":2808,"kaya":2809,"ris":2810,"m3adheb":2811,"miya":2812,"gad":2813,"yahf":2814,"3andkom":2815,"job":2816,"yezina":2817,"algerie":2818,"11":2819,"i3a":2820,"idi":2821,"ikh":2822,"keb":2823,"yom":2824,"ykou":2825,"el3a":2826,"lite":2827,"sa9":2828,"chal":2829,"kahaw":2830,"rez":2831,"tej":2832,"5ayeb":2833,"moins":2834,"them":2835,"3anna":2836,"tanbir":2837,"admin":2838,"semi":2839,"3er":2840,"3em":2841,"bz":2842,"rine":2843,"sk":2844,"nan":2845,"waw":2846,"oneya":2847,"dah":2848,"alger":2849,"9alb":2850,"walid":2851,"kemla":2852,"3ta":2853,"bess":2854,"lga":2855,"off":2856,"pho":2857,"sne":2858,"tkha":2859,"watan":2860,"saba":2861,"chai":2862,"chala":2863,"sidek":2864,"ils":2865,"aaaaaaa":2866,"5arej":2867,"kenet":2868,"sef":2869,"soub":2870,"tawwa":2871,"confi":2872,"m3lem":2873,"puis":2874,"aaaaaaaaaaaaaaaaaaaaaaaaaaaaaaaaaaaaaaaaaaaaaaaaaaaaaaaaaaaaaaaaaaaaaaaaaaaaaaaaaaaaaaaaaaaaaaaaaaaaaaaaaaaaaaaaaaaaaaaaaaaaaaaa":2875,"commentaire":2876,"amena":2877,"blh":2878,"cro":2879,"fb":2880,"kaa":2881,"mche":2882,"rjal":2883,"y7a":2884,"madha":2885,"mafhem":2886,"raha":2887,"aam":2888,"kaw":2889,"7aya":2890,"ni3ma":2891,"me7":2892,"mok":2893,"mot":2894,"ission":2895,"rabby":2896,"tur":2897,"jeu":2898,"ya3rfou":2899,"hamza":2900,"yich":2901,"mt3":2902,"masa5":2903,"basket":2904,"15":2905,"echa3eb":2906,"ffa":2907,"nul":2908,"tbi":2909,"chmeta":2910,"wahid":2911,"ett":2912,"baz":2913,"intouma":2914,"hih":2915,"dez":2916,"tola":2917,"9ik":2918,"ya3mil":2919,"sout":2920,"mta3ek":2921,"raiss":2922,"bravooooo":2923,"mezyena":2924,"raji3oun":2925,"ami":2926,"bh":2927,"b3ad":2928,"t9ou":2929,"tani":2930,"saif":2931,"dal":2932,"9ahba":2933,"3it":2934,"martou":2935,"ma39oul":2936,"3alam":2937,"klemek":2938,"7al9a":2939,"bsaraha":2940,"youtube":2941,"ataw":2942,"fre":2943,"gir":2944,"hb":2945,"jb":2946,"ndha":2947,"rc":2948,"maha":2949,"rag":2950,"elf":2951,"tahan":2952,"bis":2953,"sala7":2954,"omhom":2955,"votre":2956,"tok":2957,"noub":2958,"manel":2959,"veut":2960,"leblad":2961,"thib":2962,"nahtha":2963,"machakel":2964,"mte3ou":2965,"b1000":2966,"qa":2967,"slm":2968,"yfar":2969,"ykin":2970,"zwa":2971,"3ass":2972,"bidou":2973,"iiir":2974,"cas":2975,"mona":2976,"mois":2977,"zir":2978,"galou":2979,"khawla":2980,"enah":2981,"berrasmi":2982,"kanet":2983,"jem3a":2984,"klab":2985,"5alina":2986,"media":2987,"t7ebou":2988,"3morha":2989,"pivot":2990,"anniversaire":2991,"7e":2992,"ima":2993,"l3ar":2994,"pre":2995,"rja3":2996,"zen":2997,"emchi":2998,"fas":2999,"jana":3000,"rebi":3001,"kolo":3002,"nesma":3003,"douba":3004,"fehem":3005,"telha":3006,"tfarej":3007,"jboura":3008,"14":3009,"5raj":3010,"ejam3ia":3011,"too":3012,"yra":3013,"zaa":3014,"madh":3015,"ma3andou":3016,"chtar":3017,"lis":3018,"yaser":3019,"3ama":3020,"le3":3021,"was":3022,"eto":3023,"salim":3024,"louna":3025,"tena":3026,"ne3ma":3027,"bela":3028,"dour":3029,"wili":3030,"flousou":3031,"ttt":3032,"inti5abet":3033,"ssir":3034,"telna":3035,"fort":3036,"sebsi":3037,"3omra":3038,"dhh":3039,"y9a":3040,"yjib":3041,"hath":3042,"rayou":3043,"3ami":3044,"safi":3045,"ekom":3046,"cha7":3047,"rouk":3048,"dew":3049,"5ab":3050,"lui":3051,"andek":3052,"3andik":3053,"ahmed":3054,"zouza":3055,"wa7d":3056,"yahdi":3057,"bravoooooooooooooooo":3058,"hhhhhhhhhhhhhhhhhhhhhhhhhhhhhhhhhhhhhhhhhhhhhhhhhhhhhhhhhhhhhhhh":3059,"7kayet":3060,"clubistia":3061,"mortaz":3062,"raiis":3063,"8ar":3064,"dt":3065,"nna":3066,"tseb":3067,"yla":3068,"yid":3069,"zb":3070,"rain":3071,"chbi":3072,"bajbouj":3073,"insen":3074,"sada9":3075,"fac":3076,"dich":3077,"jibelna":3078,"malyoun":3079,"seya":3080,"part":3081,"3ej":3082,"ma7la":3083,"3inik":3084,"importe":3085,"alech":3086,"kemel":3087,"lotf":3088,"tbarkallah":3089,"jmal":3090,"nwa":3091,"ntouma":3092,"pense":3093,"less":3094,"etes":3095,"reg":3096,"moufida":3097,"nestana":3098,"annee":3099,"not":3100,"ssan":3101,"9oli":3102,"3awra":3103,"frer":3104,"play":3105,"ghalta":3106,"chnwa":3107,"partie":3108,"zgaw":3109,"efriki":3110,"hen":3111,"kl":3112,"kedh":3113,"lfri9i":3114,"uk":3115,"ure":3116,"maro":3117,"rayes":3118,"elga":3119,"ri7":3120,"rih":3121,"alh":3122,"tot":3123,"jouwer":3124,"manech":3125,"tartour":3126,"alikom":3127,"waldi":3128,"nty":3129,"enchalla":3130,"riyahi":3131,"mkacha5":3132,"9999":3133,"plz":3134,"10000":3135,"9dar":3136,"fra":3137,"m5a":3138,"sya":3139,"y5ali":3140,"ennahdha":3141,"dith":3142,"we7id":3143,"ji3an":3144,"belleh":3145,"allahou":3146,"ga3":3147,"fe3":3148,"wira":3149,"how":3150,"ghaleb":3151,"virage":3152,"eeeee":3153,"kalba":3154,"fois":3155,"yehdik":3156,"raison":3157,"mmmmmmmmmmmmmmmm":3158,"hahahah":3159,"ghalya":3160,"fehri1":3161,"16":3162,"9in":3163,"bza":3164,"b9odret":3165,"ny":3166,"oumour":3167,"nadi":3168,"yatla3":3169,"tata":3170,"lehom":3171,"bilel":3172,"batal":3173,"sana":3174,"samara":3175,"esmou":3176,"jama":3177,"jabou":3178,"kik":3179,"direc":3180,"nida":3181,"zik":3182,"3lam":3183,"andou":3184,"raj3":3185,"felna":3186,"bonjour":3187,"9alo":3188,"hawka":3189,"forsa":3190,"sbab":3191,"mridh":3192,"rcd":3193,"3bad":3194,"5li":3195,"assa":3196,"but":3197,"jma3a":3198,"mja":3199,"rhou":3200,"star":3201,"ves":3202,"yf":3203,"ysir":3204,"hama":3205,"ely":3206,"yaf":3207,"waya":3208,"riehi":3209,"loula":3210,"reya":3211,"neji":3212,"bena":3213,"weya":3214,"wewla":3215,"7ibou":3216,"minou":3217,"elik":3218,"gafsa":3219,"aaaaaaaaaa":3220,"tunes":3221,"hob":3222,"wentouma":3223,"lkolha":3224,"3arbi":3225,"yechfi":3226,"tab3ou":3227,"kedheb":3228,"ac":3229,"ara":3230,"kbar":3231,"ryehi":3232,"lama":3233,"elmo":3234,"yana":3235,"bid":3236,"iiit":3237,"faza":3238,"tez":3239,"houd":3240,"deux":3241,"entren":3242,"your":3243,"ya39ou":3244,"tared":3245,"possi":3246,"fransa":3247,"yoster":3248,"sport":3249,"4al":3250,"7lowa":3251,"ifri9i":3252,"tkom":3253,"wm":3254,"y9oulou":3255,"maaa":3256,"magh":3257,"ra3":3258,"chla":3259,"chri":3260,"chnawa":3261,"nal":3262,"fibel":3263,"tic":3264,"louh":3265,"lougha":3266,"nina":3267,"bouzid":3268,"akeka":3269,"matet":3270,"baraka":3271,"far7a":3272,"blaset":3273,"stp":3274,"yekhdem":3275,"hakeka":3276,"mnayka":3277,"jme3a":3278,"rwe7kom":3279,"public":3280,"ghodwa":3281,"3r":3282,"5dim":3283,"d5al":3284,"ep":3285,"jin":3286,"loooo":3287,"willi":3288,"yb":3289,"hazi":3290,"lal":3291,"yasser":3292,"3ayech":3293,"waret":3294,"oni":3295,"ort":3296,"youss":3297,"citation":3298,"9olou":3299,"birth":3300,"comp":3301,"gued":3302,"tarachi":3303,"going":3304,"nhebou":3305,"jaweb":3306,"much":3307,"y5alik":3308,"travailler":3309,"champion":3310,"23":3311,"5iir":3312,"7es":3313,"7lou":3314,"bjah":3315,"efri9i":3316,"jil":3317,"nhi":3318,"ned":3319,"rem":3320,"wken":3321,"yl":3322,"leybi":3323,"fid":3324,"etre":3325,"ekh":3326,"edha":3327,"fam":3328,"diya":3329,"9adeh":3330,"jew":3331,"nouchi":3332,"hemek":3333,"choix":3334,"m3allim":3335,"ilayhi":3336,"bachir":3337,"yal3eb":3338,"hahahahaha":3339,"77777777":3340,"7ezb":3341,"97ab":3342,"apres":3343,"eux":3344,"loooooooo":3345,"mz":3346,"mtek":3347,"ode":3348,"t9ol":3349,"mali":3350,"ma7a":3351,"el3ar":3352,"bii":3353,"bilehi":3354,"fich":3355,"etta":3356,"sama7":3357,"tiya":3358,"em3a":3359,"emission":3360,"moune":3361,"9alet":3362,"mennek":3363,"dod":3364,"lkoll":3365,"mahma":3366,"sere9":3367,"karti":3368,"mchet":3369,"brcha":3370,"linti":3371,"3omrek":3372,"contrat":3373,"selim":3374,"frou5":3375,"90":3376,"a3lina":3377,"best":3378,"ihi":3379,"mza":3380,"nssa":3381,"peri":3382,"teli":3383,"tfar":3384,"tjr":3385,"wh":3386,"wkol":3387,"oumou":3388,"habet":3389,"tina":3390,"ka3ba":3391,"jaya":3392,"m3allam":3393,"9aher":3394,"belhi":3395,"wiya":3396,"je3":3397,"terba7":3398,"tawfik":3399,"ta7chi":3400,"mte3kom":3401,"fo9":3402,"sont":3403,"3elna":3404,"o5rej":3405,"guiba":3406,"nrml":3407,"m3adhebhom":3408,"2el":3409,"ide":3410,"jii":3411,"nya":3412,"ven":3413,"zek":3414,"ra7a":3415,"lar":3416,"yam":3417,"saker":3418,"chak":3419,"kadheb":3420,"janoub":3421,"9ara":3422,"houni":3423,"ssin":3424,"mey":3425,"mo3":3426,"barsha":3427,"beche":3428,"toma":3429,"khar":3430,"soussa":3431,"nnn":3432,"uuuuuu":3433,"na3mel":3434,"presed":3435,"ya7f":3436,"raw3a":3437,"yar7mo":3438,"tunisia":3439,"tsawer":3440,"core":3441,"galo":3442,"khalli":3443,"normalement":3444,"70":3445,"fom":3446,"hin":3447,"iched":3448,"lom":3449,"tsir":3450,"ynik":3451,"lawled":3452,"elfa":3453,"bi3a":3454,"batala":3455,"esmha":3456,"ekher":3457,"7aw":3458,"kira":3459,"komch":3460,"5atir":3461,"ta3mal":3462,"ta3ml":3463,"fema":3464,"tekhdem":3465,"winhom":3466,"arja3":3467,"ma7leha":3468,"medeb":3469,"kilma":3470,"god":3471,"yeziw":3472,"djabo":3473,"chnoua":3474,"milliard":3475,"khoya":3476,"a3tina":3477,"confiance":3478,"ada":3479,"col":3480,"e7na":3481,"test":3482,"maye":3483,"nam":3484,"tama3":3485,"3alina":3486,"lew":3487,"bac":3488,"iiin":3489,"jaza":3490,"yej":3491,"mij":3492,"we9":3493,"zam":3494,"kounou":3495,"3amlin":3496,"kalmou":3497,"dinya":3498,"rasek":3499,"3abd":3500,"behia":3501,"ffffffffffffffff":3502,"siyasa":3503,"tfol":3504,"corona":3505,"docteur":3506,"entreneur":3507,"3lah":3508,"fol":3509,"kteb":3510,"ltawa":3511,"vis":3512,"wch":3513,"wllh":3514,"madam":3515,"la3b":3516,"aad":3517,"sali":3518,"fahmou":3519,"dil":3520,"9alek":3521,"9arar":3522,"rouna":3523,"meille":3524,"brass":3525,"5an":3526,"moin":3527,"rajol":3528,"malgre":3529,"9i9":3530,"makch":3531,"yechfik":3532,"3idkom":3533,"tarajit":3534,"titrou":3535,"upl":3536,"wakt":3537,"d5el":3538,"francais":3539,"yarahmou":3540,"5idma":3541,"ya39oubi":3542,"3ech":3543,"40":3544,"7b":3545,"7ya":3546,"9ed":3547,"adh":3548,"bdit":3549,"cra":3550,"hkom":3551,"i5a":3552,"imed":3553,"lwa":3554,"red":3555,"wr":3556,"yzid":3557,"ouna":3558,"elka":3559,"chet":3560,"ba9":3561,"chans":3562,"ool":3563,"eche":3564,"dire":3565,"m3aya":3566,"ye9":3567,"can":3568,"ne3":3569,"mabrok":3570,"key":3571,"a3mal":3572,"stin":3573,"eeeeee":3574,"9allou":3575,"9alleb":3576,"salsel":3577,"7amla":3578,"derby":3579,"oooooooooooooooooooooooooooooooo":3580,"7kaya":3581,"chnya":3582,"8alya":3583,"koora":3584,"felicitation":3585,"bhi":3586,"nen":3587,"ori":3588,"vre":3589,"w7":3590,"mahom":3591,"chle":3592,"nabil":3593,"ente":3594,"waf":3595,"saret":3596,"rie":3597,"fahem":3598,"jazi":3599,"dimo":3600,"slime":3601,"mouha":3602,"houkouma":3603,"barch":3604,"khor":3605,"lobna":3606,"ma3mal":3607,"ahlou":3608,"baratli":3609,"lelna":3610,"yesta":3611,"netmana":3612,"9olek":3613,"kot":3614,"mahla":3615,"asma3":3616,"nemchi":3617,"zinek":3618,"wejhek":3619,"yelzemna":3620,"lenti":3621,"janna":3622,"snine":3623,"7seb":3624,"cal":3625,"dza":3626,"jla":3627,"oin":3628,"y3aw":3629,"raja":3630,"laken":3631,"lazim":3632,"nal9a":3633,"taba3":3634,"lefri":3635,"bine":3636,"fia":3637,"balek":3638,"ekhdem":3639,"silou":3640,"rabiii":3641,"sset":3642,"me3a":3643,"deya":3644,"za3":3645,"beleh":3646,"kenou":3647,"7iwar":3648,"rob":3649,"minek":3650,"mat5a":3651,"winta":3652,"wa9teh":3653,"kelb":3654,"7ob":3655,"7okouma":3656,"sel3a":3657,"13":3658,"25":3659,"4ir":3660,"7la":3661,"7is":3662,"7kouma":3663,"bc":3664,"irou":3665,"nse":3666,"rii":3667,"sbeh":3668,"tmout":3669,"uf":3670,"wrou":3671,"wtf":3672,"yis":3673,"taya7":3674,"leg":3675,"sat":3676,"kah":3677,"kali":3678,"kane":3679,"dana":3680,"teha":3681,"cation":3682,"thin":3683,"thal":3684,"ma3lem":3685,"noum":3686,"ghadi":3687,"ghani":3688,"ssad":3689,"mahdi":3690,"this":3691,"sba7":3692,"mte3na":3693,"3andk":3694,"bourguiba":3695,"labess":3696,"grave":3697,"montasar":3698,"vvvv":3699,"mawjoud":3700,"n9olek":3701,"nationa":3702,"manoula":3703,"mziya":3704,"mortaz9a":3705,"5bar":3706,"5sar":3707,"amen":3708,"a3az":3709,"eha":3710,"tkar":3711,"wine":3712,"yil":3713,"yna3":3714,"y9ol":3715,"ouma":3716,"libia":3717,"yahi":3718,"3af":3719,"fiya":3720,"fine":3721,"ethaw":3722,"sadi":3723,"salouma":3724,"iim":3725,"tis":3726,"jahel":3727,"kifach":3728,"boura":3729,"cap":3730,"issi":3731,"ta3rfou":3732,"aaaaaaaaaaaa":3733,"stro":3734,"ya7mi":3735,"www":3736,"bekri":3737,"euro":3738,"etounsi":3739,"bayouta":3740,"possible":3741,"18":3742,"boo":3743,"bye":3744,"cour":3745,"jon":3746,"ymout":3747,"oua":3748,"mayet":3749,"elou":3750,"yakhi":3751,"lekher":3752,"encore":3753,"fique":3754,"inch":3755,"samah":3756,"esse":3757,"challa":3758,"7a7":3759,"ritou":3760,"bous":3761,"ooooooo":3762,"thr":3763,"rajl":3764,"enti5abet":3765,"wia":3766,"hedheka":3767,"ghan":3768,"che5":3769,"wallet":3770,"yahya":3771,"parta":3772,"darja":3773,"afrique":3774,"machalah":3775,"degag":3776,"tla3t":3777,"aaaaaage":3778,"blastou":3779,"music":3780,"chanson":3781,"aleh":3782,"bom":3783,"eek":3784,"fha":3785,"mtou":3786,"rcha":3787,"hajet":3788,"lamou":3789,"lakin":3790,"elkom":3791,"lili":3792,"takh":3793,"wad":3794,"aan":3795,"bari":3796,"inou":3797,"iih":3798,"tive":3799,"siyesa":3800,"fay":3801,"dabe":3802,"mouh":3803,"9an":3804,"kollou":3805,"thaw":3806,"lekleb":3807,"choufelna":3808,"a7ki":3809,"soum":3810,"berek":3811,"wa7dou":3812,"alaa":3813,"monde":3814,"mochkel":3815,"n7ebek":3816,"yar7mek":3817,"tabda":3818,"baad":3819,"na9es":3820,"sliim":3821,"romdha":3822,"3ayeltou":3823,"arriere":3824,"resultat":3825,"maroc":3826,"youssef":3827,"aha":3828,"awal":3829,"mba3ed":3830,"rech":3831,"masou":3832,"ensa":3833,"wassel":3834,"fii":3835,"ball":3836,"ba3id":3837,"ines":3838,"omi":3839,"tib":3840,"hichi":3841,"karah":3842,"tousel":3843,"deha":3844,"menkom":3845,"zibi":3846,"passe":3847,"fouch":3848,"andi":3849,"ents":3850,"ya3raf":3851,"merc":3852,"wenchallah":3853,"trah":3854,"asba":3855,"tanna":3856,"yahdik":3857,"denia":3858,"sinon":3859,"5dm":3860,"iwaf":3861,"nawfel":3862,"tounssi":3863,"mli7":3864,"mas2ou":3865,"droit":3866,"eff":3867,"ile":3868,"l5ir":3869,"mba3d":3870,"nhib":3871,"tdha":3872,"tine":3873,"wor":3874,"xi":3875,"mama":3876,"maal":3877,"chk":3878,"chbikom":3879,"libi":3880,"3amal":3881,"binet":3882,"ettounsi":3883,"esm":3884,"kay":3885,"7acha":3886,"jari":3887,"mennou":3888,"gan":3889,"gara":3890,"khay":3891,"souti":3892,"iiiiiiiiiiii":3893,"alihom":3894,"nchallh":3895,"may7eb":3896,"3lehom":3897,"maher":3898,"sore9":3899,"bledou":3900,"nsha":3901,"mazelt":3902,"tasma3":3903,"wow":3904,"ma3adch":3905,"montassar":3906,"yonsor":3907,"jme3et":3908,"madame":3909,"mashallah":3910,"birthday":3911,"17":3912,"arr":3913,"ase":3914,"awla":3915,"ezz":3916,"jek":3917,"nedi":3918,"s3ib":3919,"uche":3920,"ykhali":3921,"maka":3922,"maho":3923,"nach":3924,"bilahi":3925,"fit":3926,"omok":3927,"omik":3928,"chakh":3929,"7awel":3930,"emta3":3931,"echkoun":3932,"loub":3933,"dabet":3934,"da5al":3935,"tounisi":3936,"rouch":3937,"rou7i":3938,"kour":3939,"ta3raf":3940,"wih":3941,"youma":3942,"jeune":3943,"se7":3944,"hedhom":3945,"zoula":3946,"barak":3947,"kona":3948,"la3bou":3949,"kelmet":3950,"taswira":3951,"tjibou":3952,"ya3tih":3953,"tones":3954,"yyyyyyyy":3955,"cccc":3956,"33333333":3957,"fawzi":3958,"9wiya":3959,"degaaaaaage":3960,"photo":3961,"presedent":3962,"3nd":3963,"7kou":3964,"gne":3965,"leli":3966,"tfo":3967,"tkoul":3968,"haaa":3969,"maah":3970,"liste":3971,"ta2":3972,"ta5ra":3973,"bassa":3974,"insha":3975,"kalou":3976,"rim":3977,"nikou":3978,"reh":3979,"tehel":3980,"rouha":3981,"houkom":3982,"5arjou":3983,"nej":3984,"most":3985,"bera":3986,"dham":3987,"rohek":3988,"gat":3989,"ya3ml":3990,"zouha":3991,"berjoulia":3992,"mouche":3993,"winek":3994,"yechri":3995,"final":3996,"galb":3997,"te7ki":3998,"rou7k":3999,"klemou":4000,"fdhaya7":4001,"magni":4002,"dhawedi":4003,"12":4004,"5om":4005,"centre":4006,"dkh":4007,"fsed":4008,"jee":4009,"ls":4010,"mfa":4011,"nii":4012,"n7ib":4013,"sc":4014,"tbi3":4015,"vol":4016,"chmata":4017,"yali":4018,"taj":4019,"letha":4020,"le3bed":4021,"bass":4022,"inty":4023,"7akem":4024,"sili":4025,"kia":4026,"ilna":4027,"real":4028,"koubi":4029,"bez":4030,"dhahra":4031,"parole":4032,"douna":4033,"lob":4034,"fe9ou":4035,"se3a":4036,"ahl":4037,"yostor":4038,"sayb":4039,"ta7t":4040,"aliha":4041,"koli":4042,"bbj":4043,"tal3ou":4044,"ma7soub":4045,"meddeb":4046,"fergha":4047,"clubistes":4048,"kertha":4049,"e3lem":4050,"gardi":4051,"l9a7ba":4052,"clubistiya":4053,"glais":4054,"sama7ni":4055,"5s":4056,"ame":4057,"amel":4058,"agh":4059,"fdhi":4060,"gr":4061,"iwali":4062,"kech":4063,"ltounes":4064,"n9oulou":4065,"njibou":4066,"ybarek":4067,"znatir":4068,"out":4069,"libiya":4070,"leken":4071,"wallh":4072,"etran":4073,"sabr":4074,"essou":4075,"kana":4076,"famm":4077,"nique":4078,"meno":4079,"foun":4080,"bok":4081,"farha":4082,"blassa":4083,"koi":4084,"hethom":4085,"baldi":4086,"thil":4087,"tanba7":4088,"yahmi":4089,"comment":4090,"9ader":4091,"medem":4092,"fehmou":4093,"mordha":4094,"fechel":4095,"taamel":4096,"ma5yeb":4097,"saadi":4098,"ta7iya":4099,"ethawra":4100,"4ali":4101,"7om":4102,"7em":4103,"9e":4104,"9ek":4105,"9or":4106,"cel":4107,"dk":4108,"dsl":4109,"faa":4110,"hlou":4111,"use":4112,"wj":4113,"xx":4114,"yor":4115,"yzi":4116,"ma3an":4117,"chen":4118,"yass":4119,"tatla3":4120,"inik":4121,"chari":4122,"tiram":4123,"melyarat":4124,"toire":4125,"jouleya":4126,"low":4127,"aaaaaaaaaaa":4128,"raje3":4129,"yous":4130,"sera9":4131,"seif":4132,"kifhom":4133,"enas":4134,"heu":4135,"hamdel":4136,"wenssa":4137,"aux":4138,"tal3eb":4139,"thika":4140,"heki":4141,"telhe":4142,"tahel":4143,"nsit":4144,"jebt":4145,"mnaykin":4146,"yal3ab":4147,"hahahahah":4148,"wejh":4149,"siyassa":4150,"fachel":4151,"bnj":4152,"beautif":4153,"5ayba":4154,"solta":4155,"femme":4156,"mla3bi":4157,"3assba":4158,"5iiii":4159,"5maj":4160,"bri":4161,"bdet":4162,"kli":4163,"lkoul":4164,"mess":4165,"ow":4166,"sla":4167,"slam":4168,"sghar":4169,"tga":4170,"wedh":4171,"zwewla":4172,"matou":4173,"tala3":4174,"wabna":4175,"barou":4176,"batta":4177,"ka3":4178,"jamel":4179,"kifi":4180,"louha":4181,"toum":4182,"alo":4183,"cato":4184,"miz":4185,"khabet":4186,"sera":4187,"3amlet":4188,"idek":4189,"botola":4190,"ssal":4191,"arjel":4192,"sayib":4193,"mayjich":4194,"zzz":4195,"ja3four":4196,"yfadh":4197,"samba":4198,"wwwwww":4199,"cardi":4200,"fuck":4201,"i3lem":4202,"kraheb":4203,"jedou":4204,"mafia":4205,"rasoul":4206,"magnifique":4207,"5or":4208,"bde":4209,"btek":4210,"fen":4211,"fon":4212,"fhim":4213,"mhom":4214,"vir":4215,"vid":4216,"wrabbi":4217,"yir":4218,"cheri":4219,"3ame":4220,"lea":4221,"lefriki":4222,"fini":4223,"espe":4224,"7adh":4225,"moush":4226,"de9":4227,"5atrou":4228,"gauche":4229,"kker":4230,"founa":4231,"khalik":4232,"lekbir":4233,"farkh":4234,"netsawer":4235,"9owa":4236,"traja3":4237,"hhhhhhhhhhhhhhhhh":4238,"amlou":4239,"marat":4240,"dareb":4241,"jomhou":4242,"program":4243,"ketheb":4244,"sayebna":4245,"yrem":4246,"lazemna":4247,"cute":4248,"yarhamha":4249,"yo5rej":4250,"8888888888888888":4251,"slemtek":4252,"meilleur":4253,"beautiful":4254,"2i":4255,"gj":4256,"hyet":4257,"kii":4258,"lon":4259,"ndhif":4260,"pfff":4261,"tfih":4262,"uh":4263,"oura":4264,"masi":4265,"lemi":4266,"leee":4267,"bagh":4268,"ers":4269,"his":4270,"siba":4271,"dach":4272,"dawi":4273,"nifa9":4274,"ye5dmou":4275,"meni":4276,"gabes":4277,"chi5":4278,"khli":4279,"ano":4280,"anou":4281,"raj3elna":4282,"9ima":4283,"ma3in":4284,"manet":4285,"vic":4286,"winchallah":4287,"mta3kom":4288,"inti5a":4289,"mas5a":4290,"ja3fer":4291,"la79i9a":4292,"ya7ya":4293,"yib":4294,"9adrek":4295,"2020":4296,"bourjoulia":4297,"sidkom":4298,"toile":4299,"to93ed":4300,"yar7amhom":4301,"3ezkom":4302,"7ezeb":4303,"wjouh":4304,"simple":4305,"trabelsi":4306,"zwawla":4307,"5it":4308,"9tal":4309,"ag":4310,"acc":4311,"ameri":4312,"blou":4313,"bkol":4314,"dy":4315,"dma":4316,"hlek":4317,"izi":4318,"j3":4319,"lbou":4320,"lflous":4321,"mfach":4322,"sii":4323,"t5ali":4324,"ue":4325,"vr":4326,"yseb":4327,"y3inek":4328,"zzi":4329,"maine":4330,"mahomch":4331,"laka":4332,"laabed":4333,"yakh":4334,"bidha":4335,"wa7ad":4336,"aalik":4337,"ba9i":4338,"erye7i":4339,"erya7i":4340,"fath":4341,"nife9":4342,"alli":4343,"9adem":4344,"moha":4345,"islem":4346,"fouk":4347,"khaw":4348,"youfa":4349,"jeweb":4350,"9if":4351,"ma3rouf":4352,"yarhm":4353,"kifkom":4354,"jam3iyet":4355,"a3m":4356,"hamma":4357,"stru":4358,"traba":4359,"tnayek":4360,"peur":4361,"mekech":4362,"alef":4363,"badlou":4364,"super":4365,"nasma3":4366,"libre":4367,"t3awen":4368,"ysaber":4369,"bladna":4370,"vue":4371,"trous":4372,"nabbara":4373,"loool":4374,"mwabna":4375,"9loubna":4376,"3m":4377,"3end":4378,"44":4379,"7ta":4380,"bjr":4381,"ds":4382,"eg":4383,"iha":4384,"lmara":4385,"mest":4386,"nra":4387,"ob":4388,"odwa":4389,"pt":4390,"sni":4391,"tma":4392,"ydha":4393,"ragh":4394,"el7a":4395,"chhar":4396,"3ath":4397,"way":4398,"etc":4399,"baha":4400,"bayna":4401,"esou":4402,"chaa":4403,"site":4404,"rite":4405,"lahou":4406,"lahkeya":4407,"toute":4408,"rouhik":4409,"mid":4410,"5amej":4411,"3im":4412,"zay":4413,"well":4414,"weled":4415,"tof":4416,"toha":4417,"pau":4418,"douha":4419,"fout":4420,"sex":4421,"hedhy":4422,"ghalet":4423,"saybouna":4424,"mta3na":4425,"letna":4426,"maset":4427,"walina":4428,"kallem":4429,"besoin":4430,"statu":4431,"dhib":4432,"yehlek":4433,"sa7afa":4434,"hadhaka":4435,"7abs":4436,"wataniya":4437,"enera":4438,"n7ebouk":4439,"jmhour":4440,"masla7t":4441,"bheyem":4442,"chkoune":4443,"3sal":4444,"7t":4445,"9aa":4446,"cine":4447,"dzi":4448,"hkeya":4449,"i5dem":4450,"ltaw":4451,"n3":4452,"nc":4453,"nk":4454,"rk":4455,"t7i":4456,"vas":4457,"wmat":4458,"yhem":4459,"make":4460,"rasi":4461,"elhom":4462,"yarabi":4463,"tadh":4464,"taraj":4465,"3alih":4466,"eti":4467,"sama":4468,"esba":4469,"es7i7":4470,"chara":4471,"kamil":4472,"rou9":4473,"mera":4474,"miled":4475,"5asa":4476,"moh":4477,"moez":4478,"behom":4479,"voila":4480,"tham":4481,"dhor":4482,"lo5ra":4483,"3amil":4484,"3alami":4485,"a7zeb":4486,"mabr":4487,"tetfarej":4488,"abd":4489,"helna":4490,"ward":4491,"derbi":4492,"joueuret":4493,"galbi":4494,"jahl":4495,"shiha":4496,"ya7kiw":4497,"hanikom":4498,"millions":4499,"dommage":4500,"1920":4501,"qatar":4502,"5eb":4503,"dch":4504,"dri":4505,"fda":4506,"flen":4507,"iti":4508,"n3a":4509,"n7i":4510,"oha":4511,"ole":4512,"stu":4513,"tj":4514,"wlah":4515,"hamou":4516,"hadou":4517,"mawa":4518,"mati":4519,"maza":4520,"matan":4521,"rayi":4522,"nahi":4523,"nari":4524,"3alim":4525,"lema":4526,"bib":4527,"batel":4528,"bayrem":4529,"esna":4530,"cha9":4531,"7abit":4532,"kika":4533,"louhichi":4534,"ill":4535,"re7":4536,"9abel":4537,"3iba":4538,"wey":4539,"thek":4540,"douch":4541,"gandou":4542,"quali":4543,"yetfarej":4544,"terrain":4545,"yest":4546,"hhhhhhhhhhhhhhhhhhh":4547,"lkolhom":4548,"peup":4549,"walhi":4550,"la7ram":4551,"haded":4552,"mte3k":4553,"helek":4554,"hahahahahahahaha":4555,"kammel":4556,"riya7i":4557,"yabda":4558,"choft":4559,"d5ol":4560,"jjjj":4561,"meriem":4562,"mleyen":4563,"commentaires":4564,"jma3et":4565,"algeria":4566,"jouweret":4567,"danadik":4568,"samahni":4569,"gardien":4570,"programme":4571,"24":4572,"3t":4573,"3zouza":4574,"60":4575,"8neya":4576,"aham":4577,"awlad":4578,"dedi":4579,"fess":4580,"hli":4581,"kine":4582,"l3am":4583,"mze":4584,"mda5":4585,"nom":4586,"nwali":4587,"num":4588,"rfo":4589,"vza":4590,"ws":4591,"wfi":4592,"wzid":4593,"yhez":4594,"maken":4595,"tad":4596,"takila":4597,"lezim":4598,"bila":4599,"fiih":4600,"erheb":4601,"cha3ab":4602,"7aseb":4603,"fa5":4604,"jad":4605,"louken":4606,"dad":4607,"dat":4608,"toufa":4609,"m3ale":4610,"9afila":4611,"houna":4612,"migalo":4613,"5af":4614,"5ala":4615,"mo9":4616,"3ifa":4617,"that":4618,"zied":4619,"toh":4620,"khrej":4621,"lok":4622,"marsa":4623,"marek":4624,"tunsi":4625,"3allem":4626,"merde":4627,"saybo":4628,"ssil":4629,"soit":4630,"abdel":4631,"m3k":4632,"5ouh":4633,"yara7":4634,"mawdhou":4635,"tari9a":4636,"rou7ha":4637,"rassmi":4638,"jerba":4639,"3ezek":4640,"8alia":4641,"3aychin":4642,"jeunes":4643,"etranger":4644,"fammech":4645,"abir":4646,"btou":4647,"hkeyet":4648,"isi":4649,"idik":4650,"m7":4651,"sket":4652,"tchoufou":4653,"yssa":4654,"y7ib":4655,"raaa":4656,"rassi":4657,"yadh":4658,"en7eb":4659,"fili":4660,"ino":4661,"insa":4662,"sa3id":4663,"ede":4664,"echri":4665,"faz":4666,"fazet":4667,"dieu":4668,"darou":4669,"toulou":4670,"m3atheb":4671,"mouta":4672,"9adha":4673,"home":4674,"me3ak":4675,"3ina":4676,"issa":4677,"thabet":4678,"papa":4679,"joun":4680,"aaaaaaaaa":4681,"fouh":4682,"ahsan":4683,"bob":4684,"hhhhhhhhhhhhhhhhhhhhh":4685,"peut":4686,"3adech":4687,"rance":4688,"bbb":4689,"jem3iya":4690,"asl":4691,"marzougui":4692,"willa":4693,"wildi":4694,"ta7anet":4695,"edawla":4696,"tfaraj":4697,"temps":4698,"3abed":4699,"machekel":4700,"ye7ki":4701,"7asbi":4702,"mehdi":4703,"yarhmo":4704,"groupe":4705,"faceb":4706,"kedhb":4707,"heureu":4708,"3sba":4709,"a3lih":4710,"bka":4711,"fza":4712,"hrab":4713,"m3e":4714,"op":4715,"poo":4716,"rb":4717,"sghir":4718,"t9":4719,"ution":4720,"mation":4721,"tai":4722,"tahia":4723,"lem3alem":4724,"bana":4725,"inte":4726,"insta":4727,"esi":4728,"tikom":4729,"edenya":4730,"7a9ou":4731,"rir":4732,"fari9":4733,"loulou":4734,"dih":4735,"olm":4736,"9atar":4737,"roud":4738,"rouni":4739,"mee":4740,"dec":4741,"dewi":4742,"belli":4743,"belik":4744,"dhb":4745,"allaho":4746,"akbir":4747,"yousel":4748,"yousr":4749,"a7san":4750,"kifk":4751,"veux":4752,"baramej":4753,"viv":4754,"vision":4755,"wino":4756,"traba7":4757,"tnaj":4758,"9albek":4759,"aml":4760,"ammar":4761,"wallit":4762,"sow":4763,"kkkkk":4764,"bilna":4765,"yahmik":4766,"messi":4767,"bravou":4768,"jebou":4769,"mochkol":4770,"mnayk":4771,"twanssa":4772,"prin":4773,"lmra":4774,"yjibou":4775,"very":4776,"avez":4777,"nhebek":4778,"5oya":4779,"yhf":4780,"lawjou":4781,"waktech":4782,"lezm":4783,"barnemj":4784,"ghirou":4785,"nnnnnnnnnnnnnnnn":4786,"mle3":4787,"kach5a":4788,"demain":4789,"enahdha":4790,"m5a5":4791,"jamahir":4792,"jaziri":4793,"bcp":4794,"gandoura":4795,"2m":4796,"3sa":4797,"abou":4798,"baaaa":4799,"btala":4800,"dre":4801,"m7a":4802,"mne":4803,"ola":4804,"rbou":4805,"sra9":4806,"ted":4807,"t9oulou":4808,"vs":4809,"vel":4810,"y9ou":4811,"yna3mou":4812,"zine":4813,"makan":4814,"li9":4815,"liflous":4816,"najam":4817,"tasir":4818,"wadha7":4819,"eter":4820,"bache":4821,"baby":4822,"inek":4823,"sa9i":4824,"ome":4825,"omour":4826,"kater":4827,"kalam":4828,"faraj":4829,"dalil":4830,"rouda":4831,"5at":4832,"thb":4833,"thana":4834,"dha3":4835,"dhah":4836,"ta3rif":4837,"dhed":4838,"pays":4839,"minkom":4840,"lo5":4841,"section":4842,"ma3loul":4843,"ahlem":4844,"ghaliya":4845,"barat":4846,"benesba":4847,"a3lech":4848,"bladi":4849,"mta3ou":4850,"autre":4851,"eeeeeee":4852,"ghne":4853,"ssit":4854,"mahleha":4855,"thim":4856,"rrrrr":4857,"mekch":4858,"abda":4859,"bessif":4860,"5ire":4861,"rahma":4862,"sal7ou":4863,"nchllh":4864,"bourjouliya":4865,"tkawer":4866,"blhi":4867,"sement":4868,"fa9r":4869,"jendouba":4870,"bravoooooo":4871,"place":4872,"cha3be":4873,"yar7amha":4874,"classe":4875,"dddddddd":4876,"3ejbet":4877,"virus":4878,"9es":4879,"ahawka":4880,"bol":4881,"bkit":4882,"gli":4883,"kr":4884,"lbe":4885,"mh":4886,"mdr":4887,"sbou":4888,"wka":4889,"habit":4890,"elek":4891,"el5ir":4892,"elyoum":4893,"yarab":4894,"tale":4895,"3awa":4896,"wansa":4897,"aar":4898,"etkom":4899,"baji":4900,"bayen":4901,"omm":4902,"charaf":4903,"cha3ib":4904,"jat":4905,"nike":4906,"mousta":4907,"9aleb":4908,"9adek":4909,"mieux":4910,"de2":4911,"5adem":4912,"mota":4913,"menk":4914,"wef":4915,"bechir":4916,"mele5er":4917,"toch":4918,"amazin":4919,"yetkalem":4920,"chour":4921,"manna":4922,"tarek":4923,"chez":4924,"hebou":4925,"hhhhhhhhhhhhhhhhhh":4926,"zez":4927,"trek":4928,"yih":4929,"kalm":4930,"5alih":4931,"9olna":4932,"profes":4933,"ma3ach":4934,"prend":4935,"ykawer":4936,"afkar":4937,"yaatik":4938,"borjo":4939,"jamia":4940,"mridha":4941,"mlayen":4942,"sormek":4943,"please":4944,"y3awen":4945,"respec":4946,"8alta":4947,"lool":4948,"yo93ed":4949,"dhefi":4950,"5atrek":4951,"de5la":4952,"championnat":4953,"5omej":4954,"siliana":4955,"peuple":4956,"8ay":4957,"asa":4958,"bki":4959,"cle":4960,"fm":4961,"i9oulou":4962,"kch":4963,"klou":4964,"lzem":4965,"mrak":4966,"n9ou":4967,"sech":4968,"wenty":4969,"yol":4970,"y5al":4971,"haba":4972,"mane":4973,"rabe":4974,"ra7i":4975,"elma":4976,"el7a9":4977,"talla":4978,"3ajbou":4979,"wall":4980,"fisa3":4981,"aah":4982,"etwensa":4983,"bai":4984,"bacha":4985,"salla":4986,"hika":4987,"7a9a":4988,"7abou":4989,"fased":4990,"ebou":4991,"kifik":4992,"loun":4993,"al3a":4994,"mou7a":4995,"9ana":4996,"tha9a":4997,"dhab":4998,"dhech":4999,"dhbou":5000,"m3ake":5001,"doum":5002,"chicha":5003,"marka":5004,"ya3mal":5005,"ma3rou":5006,"berjouliya":5007,"metou":5008,"fard":5009,"mercato":5010,"malade":5011,"tal3et":5012,"hekka":5013,"5aliw":5014,"sbah":5015,"manajem":5016,"3malna":5017,"3a9liya":5018,"marina":5019,"zero":5020,"tbarkalah":5021,"hamdoullah":5022,"rojla":5023,"b3adhna":5024,"ghoul":5025,"ma3andouch":5026,"hamdellah":5027,"facebook":5028,"3n":5029,"9ba":5030,"bsh":5031,"dii":5032,"dhom":5033,"fomek":5034,"gen":5035,"hta":5036,"hmo":5037,"jna":5038,"ky":5039,"kro":5040,"krima":5041,"nhezou":5042,"ot":5043,"preu":5044,"rja":5045,"rol":5046,"syed":5047,"tgoul":5048,"wentom":5049,"ydi":5050,"ywalli":5051,"elly":5052,"lif":5053,"3ani":5054,"ley":5055,"ennou":5056,"saref":5057,"omra":5058,"eria":5059,"emlou":5060,"jaded":5061,"mouwa":5062,"moslim":5063,"isla":5064,"jiha":5065,"thaher":5066,"ziza":5067,"wiou":5068,"9imet":5069,"a3mil":5070,"uuuuu":5071,"ta77ana":5072,"ba3dou":5073,"cha3bha":5074,"7ouma":5075,"esseb":5076,"mahboul":5077,"yi7":5078,"yizi":5079,"aymen":5080,"formation":5081,"we7d":5082,"tounsiya":5083,"sahha":5084,"nchl":5085,"3omro":5086,"goulou":5087,"titro":5088,"sahafa":5089,"bahya":5090,"ta9ra":5091,"garcon":5092,"a5tana":5093,"yezzina":5094,"ta5raw":5095,"2019":5096,"barnemij":5097,"million":5098,"benzart":5099,"chokri":5100,"look":5101,"flos":5102,"nestanew":5103,"aaaaaaaaaaaaaaaaaaaaaaaaaaaaaaaaaaaaaaaaaaaaaaaaaaaaaaaaaaaaaaaaaaaaaaaaaaaaaaaaaaaaaaaaaaaaaaaaaaaaaaaaaaaaaaaaaaaaaaaaaaaaaaaaaaaaaaaaaaaaaaaaaaaaaaaaaaaaaaaaaaaaaaaaaaaaaaaaaaaaaaaaaaaaaaaaaaaaaaaaaaaaaaaaaaaaaaaaaaaaaaaaaaaaaaaaaaaaaaaaaaaaaaaaaaaaaaaa":5104,"epis":5105,"22":5106,"2ak":5107,"4i":5108,"5ser":5109,"achkoun":5110,"bj":5111,"bs":5112,"hlel":5113,"iz":5114,"ifriki":5115,"l8":5116,"lkou":5117,"n3ichou":5118,"pere":5119,"s7":5120,"twenssa":5121,"vit":5122,"wf":5123,"wsel":5124,"w5ay":5125,"y5":5126,"zla":5127,"ouled":5128,"hass":5129,"hassen":5130,"main":5131,"raki":5132,"chor":5133,"lie":5134,"ya9ra":5135,"3amar":5136,"3alla":5137,"3aref":5138,"bidi":5139,"wari":5140,"omma":5141,"ese":5142,"erfou":5143,"tiw":5144,"sisi":5145,"riyet":5146,"jara":5147,"daf":5148,"slimm":5149,"moun":5150,"bouli":5151,"boutou":5152,"castro":5153,"moj":5154,"zaboura":5155,"belhom":5156,"eeek":5157,"uuk":5158,"zit":5159,"rof":5160,"dhna":5161,"paro":5162,"minik":5163,"khdem":5164,"jouwaret":5165,"barchaa":5166,"tarmou":5167,"cite":5168,"netfarej":5169,"ghet":5170,"ghriba":5171,"fffff":5172,"hetheka":5173,"lilna":5174,"taher":5175,"yedh":5176,"klamek":5177,"nahdi":5178,"karl":5179,"ejdid":5180,"yebda":5181,"tunisiens":5182,"clubist":5183,"yal3bou":5184,"mazelna":5185,"yfarej":5186,"tkalem":5187,"wejha":5188,"buzz":5189,"fa9er":5190,"yosr":5191,"na7ki":5192,"ghira":5193,"femma":5194,"sommes":5195,"bbbbbbbbbbbbbbbb":5196,"to5rej":5197,"ma3naha":5198,"moustawa":5199,"mafhemtech":5200,"amazing":5201,"3ra":5202,"cs":5203,"cest":5204,"genera":5205,"i7ib":5206,"ktou":5207,"rd":5208,"sine":5209,"tkou":5210,"thir":5211,"tooo":5212,"usa":5213,"whouma":5214,"makom":5215,"matar":5216,"chbiha":5217,"liblad":5218,"lidara":5219,"nans":5220,"najeh":5221,"taka":5222,"enfa":5223,"bili":5224,"bizer":5225,"wale":5226,"sa7eb":5227,"chab3a":5228,"ka7":5229,"karou":5230,"fa9ou":5231,"louk":5232,"olta":5233,"regar":5234,"kouch":5235,"5amja":5236,"mokh":5237,"mojr":5238,"3ir":5239,"3iz":5240,"3icha":5241,"isra":5242,"tha7":5243,"dhaf":5244,"ro7":5245,"ro7ou":5246,"dhin":5247,"gali":5248,"with":5249,"teri5":5250,"hey":5251,"iiiiiiiii":5252,"metro":5253,"presque":5254,"hhhhhhhhhhhhhhhhhhhh":5255,"balf":5256,"tal7is":5257,"serie":5258,"park":5259,"stad":5260,"guer":5261,"sujet":5262,"msek":5263,"wld":5264,"kamla":5265,"majles":5266,"blida":5267,"7asra":5268,"3a9ba":5269,"watania":5270,"ne9sa":5271,"sorm":5272,"floussek":5273,"echaab":5274,"merite":5275,"5555":5276,"mawjouda":5277,"massa5":5278,"llllllllllllllllllllllllllllllll":5279,"national":5280,"mawdhou3":5281,"3tit":5282,"ane":5283,"anis":5284,"gor":5285,"jsk":5286,"l2":5287,"lkoura":5288,"loooooooooooooooo":5289,"syes":5290,"t5al":5291,"t7ot":5292,"maya3":5293,"maana":5294,"ma3andi":5295,"ra5":5296,"rake":5297,"rassou":5298,"lai":5299,"lien":5300,"nayk":5301,"ta3a":5302,"tafi":5303,"tath":5304,"3acha":5305,"wassa":5306,"salu":5307,"salo":5308,"omni":5309,"essi":5310,"fake":5311,"jayeb":5312,"rabia":5313,"limi":5314,"mou3ar":5315,"teau":5316,"ise":5317,"vos":5318,"zika":5319,"paris":5320,"dourou":5321,"chia":5322,"chibob":5323,"khsara":5324,"jou3":5325,"rajja3":5326,"wik":5327,"mmem":5328,"seul":5329,"lhe":5330,"tekdheb":5331,"metha":5332,"mer6":5333,"yot":5334,"netfar":5335,"chkounou":5336,"ght":5337,"7ouna":5338,"lkolkom":5339,"la3ba":5340,"ssia":5341,"chofo":5342,"kkkkkk":5343,"jelha":5344,"chedou":5345,"beki":5346,"ynaj":5347,"ma3adich":5348,"surtt":5349,"nts":5350,"frank":5351,"nafes":5352,"thebou":5353,"behy":5354,"na9sou":5355,"msata":5356,"ssoud":5357,"2011":5358,"2013":5359,"mte3i":5360,"najmou":5361,"gharbia":5362,"yhebou":5363,"mosta9bel":5364,"recrutements":5365,"iiiiiiiiiiw":5366,"question":5367,"blhy":5368,"3on":5369,"3il":5370,"3ml":5371,"5wet":5372,"ayou":5373,"app":5374,"bhou":5375,"clo":5376,"dc":5377,"dm":5378,"etaraji":5379,"ier":5380,"isir":5381,"lbara":5382,"mkha":5383,"oc":5384,"stop":5385,"tb":5386,"tne":5387,"tbar":5388,"toooo":5389,"tlek":5390,"tmani":5391,"wfa":5392,"w5a":5393,"wfet":5394,"ychouf":5395,"ybi3":5396,"mahi":5397,"ra8":5398,"raou":5399,"lana":5400,"chom":5401,"chba3":5402,"lid":5403,"lika":5404,"litha":5405,"letoile":5406,"enek":5407,"ennas":5408,"biii":5409,"walou":5410,"fier":5411,"base":5412,"sa3a":5413,"7ass":5414,"ri2":5415,"riah":5416,"fau":5417,"9ah":5418,"9am":5419,"yejri":5420,"camera":5421,"mih":5422,"menich":5423,"beja":5424,"bell":5425,"mele":5426,"irheb":5427,"doud":5428,"logi":5429,"fef":5430,"iiiiiiiiiii":5431,"benna":5432,"wa7dik":5433,"yestana":5434,"cia":5435,"autres":5436,"7out":5437,"mahle":5438,"walitou":5439,"ya7mik":5440,"ser9a":5441,"ma7leh":5442,"7a9ek":5443,"posi":5444,"blehi":5445,"medi":5446,"weth":5447,"binzar":5448,"impossible":5449,"t7el":5450,"da5il":5451,"franchem":5452,"yrin":5453,"a5tak":5454,"mkache5":5455,"lezemna":5456,"5dmo":5457,"exem":5458,"grande":5459,"bhayem":5460,"prive":5461,"to9tel":5462,"najla":5463,"nhb":5464,"nhbk":5465,"i5dim":5466,"maryouma":5467,"7yeti":5468,"rwa7kom":5469,"sada9ni":5470,"direct":5471,"5tar":5472,"bsi":5473,"bkir":5474,"ddem":5475,"fch":5476,"hol":5477,"i7a":5478,"ijam3iya":5479,"i9oul":5480,"kres":5481,"kber":5482,"klm":5483,"lkalb":5484,"m6":5485,"nzid":5486,"nenta":5487,"och":5488,"r9ou":5489,"shou":5490,"vrais":5491,"wwa":5492,"y9":5493,"hacha":5494,"ma3and":5495,"makich":5496,"rac":5497,"racha7":5498,"lass":5499,"lation":5500,"layem":5501,"chin":5502,"chwya":5503,"lima":5504,"naha":5505,"yaw":5506,"bini":5507,"wab":5508,"waket":5509,"fire":5510,"chahid":5511,"timchi":5512,"9a7":5513,"9ach":5514,"homech":5515,"kouna":5516,"mi3":5517,"mibou":5518,"zaf":5519,"zaza":5520,"likes":5521,"welou":5522,"dhen":5523,"allahoma":5524,"lotef":5525,"aaaaaaaaaaaaa":5526,"entii":5527,"khawa":5528,"khaoula":5529,"3liya":5530,"ention":5531,"akwa":5532,"akter":5533,"youslou":5534,"sey":5535,"teri":5536,"jam3itou":5537,"boha":5538,"botoula":5539,"tarf":5540,"3almou":5541,"archa":5542,"a3tini":5543,"yok":5544,"milyar":5545,"yess":5546,"yekh":5547,"ghor":5548,"ghoneya":5549,"kole":5550,"amn":5551,"tal3ab":5552,"aslan":5553,"gua":5554,"vamos":5555,"marzougi":5556,"yebki":5557,"jomhor":5558,"imchi":5559,"nchla":5560,"da5la":5561,"a9ra":5562,"thezou":5563,"fara7":5564,"version":5565,"yfadhel":5566,"antom":5567,"siyasi":5568,"bravooooooo":5569,"jaych":5570,"yefhmou":5571,"tor7":5572,"mte3ik":5573,"gharbi":5574,"l3bou":5575,"lazmou":5576,"9ablou":5577,"b3adhkom":5578,"siyessa":5579,"syst":5580,"yelzmou":5581,"bhema":5582,"wwwwwwiiiiiiiiiiw":5583,"episode":5584,"paroles":5585,"5e":5586,"9ha":5587,"cta":5588,"cent":5589,"fh":5590,"fyh":5591,"kya":5592,"lmin":5593,"msay":5594,"tle":5595,"uma":5596,"wfe":5597,"xe":5598,"y7i":5599,"y3ich":5600,"oussa":5601,"mafa":5602,"rate":5603,"ch3b":5604,"taz":5605,"tage":5606,"le5ra":5607,"bie":5608,"wath":5609,"wakahaw":5610,"fifa":5611,"ba3ad":5612,"invi":5613,"insan":5614,"sabet":5615,"err":5616,"kamal":5617,"kawer":5618,"katheb":5619,"sis":5620,"riha":5621,"faker":5622,"dali":5623,"nikel":5624,"roum":5625,"rouhi":5626,"rouge":5627,"caf":5628,"deci":5629,"voi":5630,"jia":5631,"jir":5632,"kenek":5633,"dhan":5634,"dhawadi":5635,"ta3mlo":5636,"dhem":5637,"m3akk":5638,"chim":5639,"luck":5640,"jouret":5641,"maryem":5642,"fe3l":5643,"wid":5644,"wich":5645,"tekteb":5646,"flouse":5647,"yoh":5648,"ta77an":5649,"wenchalah":5650,"ffffff":5651,"bledek":5652,"tet3ada":5653,"amtha":5654,"ayem":5655,"sardina":5656,"binha":5657,"pourquoi":5658,"profil":5659,"manadher":5660,"7amdou":5661,"pie":5662,"da5l":5663,"takrah":5664,"zardi":5665,"african":5666,"ysab":5667,"ijibou":5668,"miskina":5669,"sawt":5670,"mathlou":5671,"blastek":5672,"normale":5673,"gggggggg":5674,"nadhef":5675,"arbitre":5676,"bidoun":5677,"compte":5678,"orig":5679,"dzayer":5680,"europe":5681,"cours":5682,"dabegh":5683,"heureusement":5684,"100000000":5685,"3ziz":5686,"4lfa":5687,"7ke":5688,"ap":5689,"a5i":5690,"b9i":5691,"dor":5692,"deli":5693,"ezi":5694,"fg":5695,"lta":5696,"lklem":5697,"l3ab":5698,"mchou":5699,"n5a":5700,"ndhi":5701,"t3ad":5702,"uel":5703,"veri":5704,"ville":5705,"mate":5706,"malek":5707,"elk":5708,"elghalia":5709,"liber":5710,"eness":5711,"bida":5712,"aand":5713,"kanou":5714,"kaml":5715,"silm":5716,"riw":5717,"rich":5718,"fari":5719,"alha":5720,"tee":5721,"rouba":5722,"koumet":5723,"mila":5724,"5ass":5725,"newi":5726,"be9":5727,"bee":5728,"wehid":5729,"ism":5730,"zari":5731,"belkom":5732,"nesma3":5733,"gadafi":5734,"gadefi":5735,"joulya":5736,"feya":5737,"feat":5738,"leklam":5739,"reste":5740,"7ebou":5741,"3amlo":5742,"soud":5743,"hef":5744,"bos":5745,"tardou":5746,"tarbiya":5747,"far9":5748,"a3ml":5749,"yo7kom":5750,"na3tik":5751,"koma":5752,"conter":5753,"la3eb":5754,"wahdou":5755,"tellement":5756,"7otou":5757,"mesh":5758,"commen":5759,"karhba":5760,"jebet":5761,"aytem":5762,"7aded":5763,"ddd":5764,"frj":5765,"nharek":5766,"7amdi":5767,"3aychou":5768,"3aylet":5769,"da5lou":5770,"titres":5771,"ehna":5772,"nement":5773,"lazemha":5774,"journa":5775,"ra7ma":5776,"korza":5777,"wwwwwwww":5778,"hmdl":5779,"dakhel":5780,"karakou":5781,"bnina":5782,"ykhalik":5783,"attention":5784,"sraft":5785,"thank":5786,"rie7i":5787,"binetna":5788,"se7li":5789,"inshallah":5790,"2m1":5791,"lo5rin":5792,"franchement":5793,"exemple":5794,"3ti":5795,"5es":5796,"80":5797,"b7":5798,"bdi":5799,"ezawali":5800,"fli":5801,"gbal":5802,"i5alik":5803,"jbeli":5804,"m9a":5805,"spe":5806,"t3i":5807,"ua":5808,"vou":5809,"w9a":5810,"west":5811,"yti":5812,"yine":5813,"ma9a":5814,"mayes":5815,"elkoura":5816,"naje7":5817,"yaj":5818,"yasa":5819,"taleb":5820,"3ale5er":5821,"enn":5822,"enne":5823,"wa3lik":5824,"baka":5825,"erjal":5826,"chadit":5827,"chabab":5828,"kawar":5829,"7all":5830,"7achek":5831,"fadha":5832,"jabet":5833,"daoula":5834,"niw":5835,"hommes":5836,"roun":5837,"cade":5838,"cason":5839,"meya":5840,"mida":5841,"beat":5842,"isti":5843,"islam":5844,"belou":5845,"zizi":5846,"dhef":5847,"double":5848,"wina":5849,"se5":5850,"souk":5851,"mandher":5852,"zoul":5853,"fri9":5854,"matri":5855,"nok":5856,"yoch":5857,"hamla":5858,"dok":5859,"netfarjou":5860,"monsef":5861,"ssilou":5862,"wa9ef":5863,"chose":5864,"rrrrrr":5865,"nahki":5866,"5alihom":5867,"forca":5868,"will":5869,"kethb":5870,"erie":5871,"3aychek":5872,"supp":5873,"mazelou":5874,"bebe":5875,"tebda":5876,"song":5877,"fara5":5878,"ta7kiw":5879,"taaref":5880,"7asbou":5881,"8alet":5882,"continue":5883,"zokom":5884,"yezziw":5885,"sob7an":5886,"personne":5887,"dinars":5888,"crois":5889,"mzeya":5890,"3na":5891,"3mar":5892,"7kem":5893,"amina":5894,"amir":5895,"drou":5896,"ea":5897,"hes":5898,"lli":5899,"l3ou":5900,"lko":5901,"mj":5902,"moo":5903,"mtha":5904,"nkounou":5905,"pli":5906,"ster":5907,"tz":5908,"tban":5909,"ykom":5910,"y3in":5911,"haki":5912,"hakom":5913,"mato":5914,"mana3":5915,"rama":5916,"rath":5917,"ravi":5918,"rayek":5919,"rajal":5920,"laaa":5921,"elem":5922,"li7":5923,"tataw":5924,"enni":5925,"enness":5926,"biba":5927,"bi3ou":5928,"aasba":5929,"ethom":5930,"sahel":5931,"sameh":5932,"sauf":5933,"ekil":5934,"kath":5935,"jani":5936,"da7":5937,"toub":5938,"allez":5939,"mousal":5940,"tejri":5941,"9ali":5942,"9adh":5943,"kouk":5944,"mezi":5945,"mehouch":5946,"barvo":5947,"zaret":5948,"bel3id":5949,"kene":5950,"tona":5951,"ta3lim":5952,"roh":5953,"gata3":5954,"chihem":5955,"khe":5956,"khw":5957,"joud":5958,"aaaaaaaaaaaaaa":5959,"yetek":5960,"ma3mel":5961,"7ebech":5962,"tawra":5963,"flousik":5964,"vier":5965,"oooooooooo":5966,"zeyd":5967,"amthel":5968,"yimchi":5969,"telhom":5970,"yedek":5971,"stana":5972,"ayna":5973,"sara7a":5974,"tabka":5975,"sahby":5976,"t7es":5977,"sure":5978,"tenja7":5979,"sa77a":5980,"3malet":5981,"wlhi":5982,"yjik":5983,"ssema":5984,"lybia":5985,"ykounou":5986,"sad9ou":5987,"gratu":5988,"ne9fou":5989,"politi":5990,"pris":5991,"ma9hour":5992,"intom":5993,"dharbet":5994,"mosta9":5995,"annif":5996,"hamdoulah":5997,"mo5ek":5998,"election":5999,"7okm":6000,"la7asa":6001,"fo9ma":6002,"felicitations":6003,"khormo":6004,"pauvre":6005,"m3athebhom":6006,"profession":6007,"3k":6008,"4ar":6009,"7ra":6010,"7aa":6011,"8oul":6012,"93a":6013,"9sar":6014,"asi":6015,"awil":6016,"a3lihom":6017,"bd":6018,"bkom":6019,"cur":6020,"d9i9a":6021,"fc":6022,"gens":6023,"ies":6024,"ijib":6025,"ltou":6026,"lbeji":6027,"nta3":6028,"nzidou":6029,"omak":6030,"rut":6031,"sok":6032,"wsa":6033,"wtaw":6034,"ydik":6035,"zis":6036,"ma3andek":6037,"lakom":6038,"live":6039,"naykou":6040,"nal3bou":6041,"eno":6042,"wafi":6043,"fikou":6044,"etek":6045,"bazoula":6046,"chams":6047,"tie":6048,"rijel":6049,"kifah":6050,"dida":6051,"mourad":6052,"rou7o":6053,"ye5ou":6054,"yeux":6055,"mehich":6056,"mibouna":6057,"dena":6058,"5ales":6059,"mo7":6060,"menna":6061,"wez":6062,"oro":6063,"bellah":6064,"tha3":6065,"tha9":6066,"kent":6067,"gas":6068,"anglais":6069,"malheureusement":6070,"kifch":6071,"vez":6072,"jam3iti":6073,"tard":6074,"yost":6075,"yekteb":6076,"tna7i":6077,"9alha":6078,"mayji":6079,"wald":6080,"wa9tou":6081,"parle":6082,"ma7le":6083,"selem":6084,"medec":6085,"mte3hom":6086,"vais":6087,"dhia":6088,"mnawer":6089,"sara9":6090,"yerham":6091,"habtou":6092,"teni":6093,"gie":6094,"na9ra":6095,"3aks":6096,"blid":6097,"l3asba":6098,"borjouliya":6099,"o5rin":6100,"fesed":6101,"wehd":6102,"mezelt":6103,"akher":6104,"klemik":6105,"faddina":6106,"fanen":6107,"enseur":6108,"mortadha":6109,"ssssssssssssssss":6110,"tunisienne":6111,"no9ta":6112,"radio":6113,"tneket":6114,"3amaliya":6115,"dhhor":6116,"loooool":6117,"tounisia":6118,"qualite":6119,"poop":6120,"21":6121,"500":6122,"bsou":6123,"bkolha":6124,"cet":6125,"gle":6126,"hena":6127,"i9a":6128,"jdod":6129,"kma":6130,"lg":6131,"llem":6132,"mlih":6133,"nda":6134,"nthi":6135,"pire":6136,"rra":6137,"sbeb":6138,"tbou":6139,"tla7":6140,"t3eb":6141,"wnchallah":6142,"ym":6143,"ykon":6144,"ouel":6145,"hai":6146,"hawa":6147,"rapp":6148,"laya":6149,"lamen":6150,"naar":6151,"yahia":6152,"tac":6153,"tafeh":6154,"billah":6155,"ethi":6156,"omg":6157,"essa7a":6158,"iis":6159,"time":6160,"kaka":6161,"7awi":6162,"ridh":6163,"ri2a":6164,"echou":6165,"fakrou":6166,"fachal":6167,"loumour":6168,"diri":6169,"daima":6170,"mounaf":6171,"9alik":6172,"nefhem":6173,"uur":6174,"dhabhom":6175,"3laha":6176,"ta3rf":6177,"7ichi":6178,"doun":6179,"raj3o":6180,"sehla":6181,"hedhouma":6182,"ya3koubi":6183,"respon":6184,"ahki":6185,"fihe":6186,"lesh":6187,"jam3iyetna":6188,"no5":6189,"floussou":6190,"argent":6191,"mero":6192,"a3ref":6193,"kanzari":6194,"blach":6195,"walaw":6196,"hamd":6197,"yesir":6198,"na3ti":6199,"netha":6200,"yekhd":6201,"tnajmou":6202,"hhhhhhhhhhhhhhhhhhhhhh":6203,"mahmou":6204,"wahret":6205,"tahbet":6206,"jebha":6207,"9adrou":6208,"konna":6209,"lha9":6210,"9olo":6211,"impor":6212,"3awdou":6213,"tfad":6214,"fhemt":6215,"tenu":6216,"eyh":6217,"hahahahahah":6218,"nord":6219,"t3ada":6220,"na9sin":6221,"deth":6222,"borjoulia":6223,"mmmmmmmmmmmm":6224,"narj3ou":6225,"avanti":6226,"hors":6227,"na7kiw":6228,"siasa":6229,"lezmou":6230,"nerb7ou":6231,"fdha7":6232,"milieu":6233,"clash":6234,"9ablek":6235,"mla3bia":6236,"leurs":6237,"makhyeb":6238,"hadheka":6239,"arabe":6240,"7louwa":6241,"9aherhom":6242,"work":6243,"2al":6244,"3jebni":6245,"56":6246,"5mis":6247,"5iiir":6248,"8i":6249,"a8":6250,"ayy":6251,"baaa":6252,"cul":6253,"d3a":6254,"d9ou":6255,"ftou":6256,"iy":6257,"l3bed":6258,"mda":6259,"mol":6260,"n9":6261,"n7a":6262,"n9a":6263,"pes":6264,"sbi":6265,"swi":6266,"sre9":6267,"s7a7":6268,"s3iba":6269,"tza":6270,"twal":6271,"w9":6272,"wk":6273,"ysou":6274,"ymoutou":6275,"zbar":6276,"oussema":6277,"mau":6278,"ma3la":6279,"last":6280,"elo":6281,"lida":6282,"litou":6283,"nath":6284,"yama":6285,"yala":6286,"yahaf":6287,"3ahd":6288,"leti":6289,"ench":6290,"wag":6291,"waaa":6292,"wa7a":6293,"insi":6294,"sas":6295,"sawet":6296,"eki":6297,"emma":6298,"jabo":6299,"kilab":6300,"dira":6301,"touri":6302,"toulha":6303,"repon":6304,"9anat":6305,"yeee":6306,"houlna":6307,"misel":6308,"migalou":6309,"depuis":6310,"5ayef":6311,"mo5ou":6312,"iste":6313,"ord":6314,"belha":6315,"nesba":6316,"liklem":6317,"rabba":6318,"rabyy":6319,"dhet":6320,"dhkom":6321,"fez":6322,"fe3el":6323,"anne":6324,"andha":6325,"tuni":6326,"3liik":6327,"3bo":6328,"yetfarjou":6329,"9ouwa":6330,"nouwa":6331,"3amne":6332,"kifna":6333,"enabara":6334,"sous":6335,"soura":6336,"souri":6337,"tekseb":6338,"mande":6339,"friqui":6340,"mat7":6341,"matech":6342,"mat5ali":6343,"boto":6344,"farj":6345,"3aleli":6346,"arti":6347,"na3mlo":6348,"ghnaya":6349,"masr":6350,"traji":6351,"mechya":6352,"tnajim":6353,"peu":6354,"jem3ia":6355,"talfza":6356,"mnt":6357,"hadded":6358,"ramzi":6359,"5alit":6360,"war9a":6361,"produ":6362,"iiiiiiiiiiiiiiiiiiiiiiii":6363,"777":6364,"inal":6365,"inajem":6366,"7amra":6367,"hedhika":6368,"rjelha":6369,"taswir":6370,"juin":6371,"fetna":6372,"nhebouk":6373,"fechla":6374,"zink":6375,"tehki":6376,"5dma":6377,"experi":6378,"avance":6379,"ma5lou":6380,"ma9boula":6381,"d5lou":6382,"tay7ou":6383,"7kmou":6384,"iwaf9ek":6385,"i3ti":6386,"i7ebou":6387,"yonser":6388,"zahrouni":6389,"tamthil":6390,"hkaya":6391,"pfffff":6392,"mkach5a":6393,"resulta":6394,"ndhaf":6395,"toop":6396,"freret":6397,"looool":6398,"belehy":6399,"statut":6400,"dridi":6401,"preuve":6402,"2eme":6403,"3rab":6404,"3ine":6405,"5is":6406,"7ra9":6407,"9d":6408,"ari":6409,"awl":6410,"bkolna":6411,"cr":6412,"eja":6413,"eza":6414,"esa7a":6415,"frr":6416,"fhm":6417,"hlowa":6418,"ig":6419,"ichi":6420,"jbo":6421,"lw":6422,"lz":6423,"lboutoula":6424,"msiba":6425,"nkoun":6426,"oil":6427,"rgui":6428,"sgha":6429,"swis":6430,"tiiii":6431,"tgha":6432,"tgou":6433,"wzir":6434,"y7ot":6435,"yhanikom":6436,"z3am":6437,"ma2":6438,"maou":6439,"mail":6440,"maman":6441,"rami":6442,"ration":6443,"elkhir":6444,"chrit":6445,"na5":6446,"nay":6447,"na7a":6448,"nasi":6449,"najah":6450,"tafa":6451,"taxi":6452,"bi7a":6453,"wa5":6454,"wasil":6455,"etel":6456,"sale":6457,"sarek":6458,"sawar":6459,"chat":6460,"hijab":6461,"ka3b":6462,"kahba":6463,"7abes":6464,"echi":6465,"fakh":6466,"facon":6467,"kiya":6468,"kileb":6469,"daher":6470,"touz":6471,"touche":6472,"ilt":6473,"moubarek":6474,"bouhom":6475,"mibon":6476,"brahim":6477,"5ayr":6478,"mowa":6479,"moda":6480,"lemra":6481,"thak":6482,"rab3a":6483,"7im":6484,"chit":6485,"feel":6486,"khab":6487,"khan":6488,"khaled":6489,"mal9it":6490,"seyeb":6491,"ma3raf":6492,"chouhada":6493,"3alali":6494,"a7ssen":6495,"yarbi":6496,"urgent":6497,"soutek":6498,"heur":6499,"nowa":6500,"yodh":6501,"saybouh":6502,"ta7na":6503,"mta3hom":6504,"weni":6505,"9olik":6506,"maslah":6507,"fikra":6508,"la7kaya":6509,"hadra":6510,"wahd":6511,"waher":6512,"bil7a9":6513,"yahfed":6514,"besm":6515,"3eya":6516,"iiiin":6517,"inchaallah":6518,"prote":6519,"kil3ada":6520,"jibni":6521,"3awnek":6522,"machin":6523,"5edmet":6524,"t3adi":6525,"tkamel":6526,"wejhou":6527,"cha3ra":6528,"ennabara":6529,"mezyen":6530,"hadhika":6531,"to93od":6532,"uuuh":6533,"dharba":6534,"slt":6535,"9oddem":6536,"rwe7hom":6537,"petit":6538,"first":6539,"great":6540,"zzzzzzzzzzzzzzzz":6541,"9elet":6542,"00000000000000000000000000000000":6543,"chab3an":6544,"numero":6545,"nenta5eb":6546,"7ayawen":6547,"far7anin":6548,"tkarkira":6549,"fdhi7a":6550,"slamtek":6551,"esperance":6552,"5asatan":6553,"mle3bi":6554,"tooop":6555,"salut":6556,"casoni":6557,"3da":6558,"7ed":6559,"avo":6560,"amar":6561,"amour":6562,"benti":6563,"ehom":6564,"eji":6565,"eyy":6566,"ejam3eya":6567,"lle":6568,"mya":6569,"mti":6570,"nmou":6571,"njib":6572,"pen":6573,"srou":6574,"spon":6575,"tyy":6576,"tbadel":6577,"uni":6578,"what":6579,"yne":6580,"zil":6581,"ha3":6582,"hade":6583,"mafih":6584,"mait":6585,"mast":6586,"mathel":6587,"rawa7":6588,"lala":6589,"la7as":6590,"el9a":6591,"chmou":6592,"chweya":6593,"3atrous":6594,"lekh":6595,"enhar":6596,"engli":6597,"fihh":6598,"fi9o":6599,"fihoum":6600,"instru":6601,"sakh":6602,"sayab":6603,"eser":6604,"tim":6605,"tima":6606,"eddawla":6607,"fass":6608,"fann":6609,"face":6610,"eb3ed":6611,"toura":6612,"alle":6613,"m3all":6614,"rena":6615,"9atel":6616,"rouma":6617,"houlik":6618,"5assa":6619,"5amem":6620,"ne5":6621,"becha":6622,"ismou":6623,"thed":6624,"uuh":6625,"dhafi":6626,"jouar":6627,"amam":6628,"3likoum":6629,"yet7a":6630,"hedh":6631,"demo":6632,"enari":6633,"sousa":6634,"matchou":6635,"vipa":6636,"ba3da":6637,"lette":6638,"kolek":6639,"massi":6640,"hhhhhhhhhhhhhhhhhhhhhhhh":6641,"hal9a":6642,"hareb":6643,"ssiya":6644,"ja3far":6645,"yahfad":6646,"5itab":6647,"5aliha":6648,"dhim":6649,"ynajmou":6650,"saraha":6651,"testa":6652,"maw9ef":6653,"habt":6654,"premi":6655,"tebki":6656,"affaire":6657,"te7chi":6658,"bus":6659,"3eth":6660,"recrut":6661,"7arb":6662,"aidkom":6663,"5ayfin":6664,"sliiim":6665,"3alikom":6666,"miskin":6667,"uuuk":6668,"azber":6669,"thabti":6670,"sma3t":6671,"8aliya":6672,"hkayet":6673,"attend":6674,"mamstek":6675,"kkkkkkkkkkkkkkkkkkkkkkkkkkkkkkkk":6676,"touniss":6677,"puisque":6678,"99999999":6679,"periode":6680,"dimo9ra":6681,"scenari":6682,"aghla":6683,"bizerte":6684,"logique":6685,"oussama":6686,"karakouz":6687,"cadeau":6688,"experience":6689,"2ta":6690,"3or":6691,"3jeb":6692,"7be":6693,"8odwa":6694,"ahh":6695,"atawa":6696,"b3d":6697,"celle":6698,"crea":6699,"dda":6700,"ezouz":6701,"fs":6702,"icha3b":6703,"jra":6704,"kbarat":6705,"l9i":6706,"lleh":6707,"mro":6708,"nja":6709,"slu":6710,"s8ar":6711,"tte":6712,"tkon":6713,"wii":6714,"yberek":6715,"zee":6716,"hall":6717,"malem":6718,"maji":6719,"mazou":6720,"maghir":6721,"ellah":6722,"elbled":6723,"chil":6724,"chbihom":6725,"lii":6726,"nai":6727,"yatik":6728,"taou":6729,"taaa":6730,"tarr":6731,"tafri":6732,"3ara":6733,"level":6734,"aamel":6735,"bag":6736,"bada":6737,"bachar":6738,"sade9":6739,"ommou":6740,"essaha":6741,"errjel":6742,"chaw":6743,"tisad":6744,"hira":6745,"emha":6746,"ritha":6747,"ridha":6748,"fakar":6749,"loughet":6750,"dadi":6751,"nir":6752,"olna":6753,"mouzika":6754,"te5ou":6755,"tefeh":6756,"9ahwa":6757,"bout":6758,"bouni":6759,"rouho":6760,"mizi":6761,"5ari":6762,"5alet":6763,"ney":6764,"bella":6765,"ffer":6766,"wele":6767,"toil":6768,"to7kom":6769,"ta3m":6770,"ro7o":6771,"chik":6772,"sloum":6773,"marto":6774,"annou":6775,"khas":6776,"khayeb":6777,"quand":6778,"raje":6779,"wija":6780,"yetka":6781,"hedhe":6782,"chouk":6783,"yarj3ou":6784,"kifh":6785,"fils":6786,"hebi":6787,"hehe":6788,"mandh":6789,"zouna":6790,"ghanouchi":6791,"berik":6792,"tarji":6793,"mete":6794,"metet":6795,"a3da":6796,"milyarat":6797,"ta7il":6798,"yesr":6799,"mta3ha":6800,"yyek":6801,"brabii":6802,"9os":6803,"9allek":6804,"mayhem":6805,"tetha":6806,"esso":6807,"waldin":6808,"wa9fou":6809,"thi9et":6810,"asel":6811,"te3jebni":6812,"hadhom":6813,"choufo":6814,"7ogra":6815,"ma7lekom":6816,"makon":6817,"poste":6818,"shkoun":6819,"9addech":6820,"wledna":6821,"manach":6822,"3malha":6823,"fere":6824,"sahli":6825,"yal9a":6826,"zarzis":6827,"yfad":6828,"behin":6829,"tla3et":6830,"ye7mi":6831,"sidna":6832,"joumhou":6833,"tarikh":6834,"8adi":6835,"awle":6836,"o5ti":6837,"videos":6838,"ne9es":6839,"janvier":6840,"cha5s":6841,"zoz":6842,"anime":6843,"yasma3":6844,"cujet":6845,"klemi":6846,"tlawej":6847,"yarhamhom":6848,"psy":6849,"chebeb":6850,"rouhk":6851,"rwe7na":6852,"italia":6853,"siyesi":6854,"joret":6855,"projets":6856,"mamset":6857,"yarhmek":6858,"yare7mou":6859,"hatheka":6860,"y3awnek":6861,"instagram":6862,"3tou":6863,"5el":6864,"5rou":6865,"7bou":6866,"7lel":6867,"8oneya":6868,"abi":6869,"ati":6870,"echar":6871,"ejam3ya":6872,"fna":6873,"gga":6874,"ied":6875,"im3a":6876,"nraw":6877,"pk":6878,"rha":6879,"rwa":6880,"s8ir":6881,"t9ar":6882,"tfarjou":6883,"ub":6884,"woo":6885,"w7a":6886,"yenta5":6887,"zbi":6888,"ouha":6889,"hawla":6890,"maqu":6891,"rajou":6892,"rahoum":6893,"elwa":6894,"elleh":6895,"chrab":6896,"ch3ar":6897,"chbeha":6898,"nad":6899,"nant":6900,"tayah":6901,"tayer":6902,"enheb":6903,"ennahda":6904,"bile":6905,"binou":6906,"waa":6907,"fiik":6908,"fikoum":6909,"omri":6910,"erriahi":6911,"eryahi":6912,"hiz":6913,"7assa":6914,"7asilou":6915,"embre":6916,"ri7a":6917,"faou":6918,"farik":6919,"kidhb":6920,"loubna":6921,"lou8a":6922,"alwa":6923,"al3ab":6924,"m3amer":6925,"re3":6926,"kouya":6927,"meha":6928,"dehom":6929,"nez":6930,"moche":6931,"3imed":6932,"beba":6933,"beyen":6934,"jik":6935,"jibilna":6936,"thaa":6937,"zib":6938,"rabb":6939,"chiheb":6940,"marki":6941,"feyda":6942,"kharej":6943,"rajaa":6944,"wit":6945,"akthir":6946,"seh":6947,"9ouch":6948,"9i9i":6949,"ya3mlo":6950,"ahssen":6951,"soul":6952,"tawla":6953,"bomaye":6954,"mabrouuuk":6955,"bene":6956,"meti":6957,"winkom":6958,"wintouma":6959,"art":6960,"alam":6961,"blass":6962,"ta7et":6963,"domage":6964,"na3raf":6965,"auc":6966,"la3bad":6967,"bal3ou":6968,"la7zeb":6969,"chohra":6970,"wahf":6971,"yim":6972,"hakem":6973,"ma7lak":6974,"desole":6975,"mr6":6976,"inchalh":6977,"chedin":6978,"dhi3":6979,"9oltou":6980,"achref":6981,"twari":6982,"surtou":6983,"uuuuuuuuuuuu":6984,"yezik":6985,"hadaka":6986,"sssss":6987,"choufoulna":6988,"t3ani":6989,"aflem":6990,"kamlo":6991,"cote":6992,"a5bar":6993,"sidhom":6994,"teurs":6995,"tahkiw":6996,"tayra":6997,"azma":6998,"mta3i":6999,"9raya":7000,"e5ti":7001,"wledi":7002,"ooooop":7003,"saique":7004,"bravooooooooo":7005,"championa":7006,"musica":7007,"3ajla":7008,"yelzmek":7009,"masla7et":7010,"la7assa":7011,"geste":7012,"sa9si":7013,"free":7014,"4alya":7015,"lenti5abet":7016,"effec":7017,"yest7a9":7018,"omniti":7019,"26":7020,"5tr":7021,"7ki":7022,"9er":7023,"amou":7024,"a5dem":7025,"dji":7026,"f3ou":7027,"fomha":7028,"hkouma":7029,"jt":7030,"jeni":7031,"jbni":7032,"lbi":7033,"lham":7034,"lyouma":7035,"mii":7036,"meb":7037,"nhe":7038,"nine":7039,"nsh":7040,"sp":7041,"stan":7042,"wta":7043,"wnchalah":7044,"ytha":7045,"y3adi":7046,"ykhal":7047,"zon":7048,"zoni":7049,"oubli":7050,"hasilou":7051,"ma8":7052,"makomch":7053,"rawah":7054,"la5":7055,"laj":7056,"elba":7057,"chii":7058,"nayik":7059,"tasa":7060,"tasta":7061,"3afa":7062,"entou":7063,"enia":7064,"want":7065,"fis":7066,"aabed":7067,"bahia":7068,"sadek":7069,"saleh":7070,"essid":7071,"kala":7072,"kabir":7073,"edin":7074,"oool":7075,"7asa":7076,"riyehi":7077,"kile":7078,"kife":7079,"darek":7080,"dabat":7081,"al3eb":7082,"lime":7083,"m3adhabhom":7084,"rejel":7085,"mouda":7086,"teek":7087,"9a3id":7088,"boutola":7089,"ssek":7090,"cain":7091,"capi":7092,"deek":7093,"mohem":7094,"3ida":7095,"beu":7096,"ismha":7097,"zak":7098,"jiya":7099,"jibo":7100,"jimla":7101,"eeel":7102,"thala":7103,"dhaou":7104,"rabha":7105,"dhha":7106,"foul":7107,"amara":7108,"aker":7109,"akhi":7110,"youns":7111,"yet3ada":7112,"jeyeb":7113,"semaine":7114,"3amna":7115,"3ala9al":7116,"3alamiya":7117,"yar7a":7118,"tekel":7119,"zouk":7120,"jam3itek":7121,"matjich":7122,"bendir":7123,"wa7ch":7124,"chayy":7125,"3oum":7126,"blabla":7127,"mill":7128,"ooooooooooo":7129,"mas5in":7130,"mechia":7131,"3adna":7132,"la3rab":7133,"rant":7134,"esser":7135,"ssion":7136,"tal3a":7137,"talvza":7138,"sod":7139,"soci":7140,"tanjah":7141,"makboula":7142,"kartha":7143,"m3lm":7144,"force":7145,"ting":7146,"konet":7147,"maakom":7148,"n7ebbou":7149,"tunisian":7150,"prob":7151,"tesma3":7152,"tfaker":7153,"tfakrou":7154,"lkbir":7155,"mort":7156,"yalzem":7157,"da5let":7158,"derni":7159,"mazelet":7160,"edio":7161,"adel":7162,"giba":7163,"5edmou":7164,"yaamel":7165,"porno":7166,"9a3d":7167,"mkachakh":7168,"ellement":7169,"3elmi":7170,"8aleb":7171,"cha3bi":7172,"jamila":7173,"mrith":7174,"yyyyy":7175,"ifadh":7176,"lezmek":7177,"i7tira":7178,"weslet":7179,"jaafer":7180,"mentalite":7181,"e5r":7182,"ntaba3":7183,"faw9a":7184,"fawdha":7185,"glayeb":7186,"iiiiiiiiiiiiiiiiiiiiiiiiiiiiiiiiiiiiiiiiiiiiiiiiiiiiiiiiiiiiiiii":7187,"illage":7188,"mathal":7189,"flow":7190,"rwa7hom":7191,"tbib":7192,"vesti":7193,"blasetha":7194,"titrouwet":7195,"maallem":7196,"simplement":7197,"3awatef":7198,"titrowet":7199,"boutoulet":7200,"toooop":7201,"39":7202,"5ine":7203,"5rit":7204,"79i9":7205,"7low":7206,"8irou":7207,"aou":7208,"akal":7209,"b9a":7210,"bsay":7211,"dkhal":7212,"ezaweli":7213,"hw":7214,"hke":7215,"ibi":7216,"ikha":7217,"izid":7218,"kbel":7219,"keli":7220,"lho":7221,"lwakil":7222,"nkoul":7223,"nhab":7224,"nhez":7225,"qi":7226,"riii":7227,"rbe7":7228,"rweh":7229,"sbe":7230,"tma3":7231,"t3ar":7232,"tsar":7233,"vedio":7234,"wtawa":7235,"wkan":7236,"wcha3b":7237,"wrah":7238,"y5dem":7239,"ma9al":7240,"ma3andhom":7241,"raka":7242,"raak":7243,"lawa7":7244,"el2":7245,"liss":7246,"lillah":7247,"naik":7248,"ta9a":7249,"leek":7250,"leni":7251,"ensan":7252,"ennour":7253,"walo":7254,"wawla":7255,"fitna":7256,"batt":7257,"bayer":7258,"erou":7259,"eryehi":7260,"hichem":7261,"kass":7262,"7abina":7263,"7adher":7264,"jadid":7265,"division":7266,"dama":7267,"revol":7268,"mou3a":7269,"mouhamed":7270,"homm":7271,"rou7a":7272,"rouss":7273,"meta3":7274,"de3":7275,"mora":7276,"menech":7277,"barr":7278,"bared":7279,"beyna":7280,"thah":7281,"zido":7282,"ro7i":7283,"ro7k":7284,"chi3ar":7285,"kheb":7286,"mart":7287,"ansa":7288,"youh":7289,"yetha":7290,"ma3nd":7291,"terbe7":7292,"kifkif":7293,"souha":7294,"sou2el":7295,"manfou":7296,"matkha":7297,"bo3":7298,"lebla":7299,"kez":7300,"arjou":7301,"armasta":7302,"mere":7303,"kant":7304,"cien":7305,"betha":7306,"9offa":7307,"ghon":7308,"masrou":7309,"peux":7310,"amri":7311,"ases":7312,"wahdik":7313,"ya7chi":7314,"yi5dim":7315,"parler":7316,"3ela":7317,"meskine":7318,"m3o":7319,"mochk":7320,"mte3ha":7321,"houmch":7322,"ejjam3ia":7323,"5ouk":7324,"maaha":7325,"maadech":7326,"yenja7":7327,"kilna":7328,"yerhmou":7329,"yehmik":7330,"fr7ou":7331,"fhemtech":7332,"raisna":7333,"ywaf9":7334,"nasm3ou":7335,"hanna":7336,"machya":7337,"lyri":7338,"nsaw":7339,"yaani":7340,"ra2isna":7341,"ysahel":7342,"tari9":7343,"wou3oud":7344,"plateau":7345,"t5af":7346,"normalment":7347,"ifarej":7348,"latrab":7349,"n7bk":7350,"wnti":7351,"petrol":7352,"saied":7353,"dhaherli":7354,"karama":7355,"ychafiha":7356,"champions":7357,"yehdikom":7358,"3ayeltek":7359,"pffffff":7360,"votez":7361,"mkach5in":7362,"rrrrrrrrrrrrrrrrrrrrrrrrrrrrrrrr":7363,"reaction":7364,"adheka":7365,"mat5afech":7366,"yassine":7367,"enfants":7368,"miboune":7369,"ndhifa":7370,"curva":7371,"nthif":7372,"3amnewel":7373,"effectif":7374,"2l":7375,"7il":7376,"7mo":7377,"aslou":7378,"b7ar":7379,"ei":7380,"eba":7381,"efa":7382,"ever":7383,"eta7ana":7384,"fdh":7385,"gri":7386,"hne":7387,"iba":7388,"ihez":7389,"i3lam":7390,"jwa":7391,"j3o":7392,"kri":7393,"khom":7394,"lca":7395,"lfilm":7396,"loooooo":7397,"ndem":7398,"ngol":7399,"rt":7400,"she":7401,"swa7":7402,"tssa":7403,"vent":7404,"wlla":7405,"wbarra":7406,"ykh":7407,"yzidou":7408,"z3a":7409,"madi":7410,"massoud":7411,"raya":7412,"ragued":7413,"elkoul":7414,"elhiwar":7415,"chrif":7416,"yata":7417,"yassa":7418,"taba":7419,"taref":7420,"taire":7421,"tafeha":7422,"3ati":7423,"3afat":7424,"le5":7425,"leo":7426,"enour":7427,"wara":7428,"wada":7429,"etti":7430,"saket":7431,"sale7":7432,"ekbes":7433,"ii7":7434,"kamlou":7435,"kadech":7436,"7asi":7437,"7ath":7438,"7alla":7439,"7alet":7440,"7atit":7441,"fais":7442,"jame":7443,"dif":7444,"das":7445,"dane":7446,"dawer":7447,"nim":7448,"touk":7449,"alllah":7450,"ilmou":7451,"te7ou":7452,"9ak":7453,"cam":7454,"mile":7455,"mizel":7456,"5alou":7457,"mosaique":7458,"menes":7459,"3icho":7460,"lemfach":7461,"zatla":7462,"za3im":7463,"thor":7464,"thamma":7465,"melle5er":7466,"rabet":7467,"togh":7468,"doura":7469,"mink":7470,"minnek":7471,"llla":7472,"elit":7473,"chihemek":7474,"khin":7475,"khraj":7476,"loma":7477,"mark":7478,"quelle":7479,"amari":7480,"mal9i":7481,"hop":7482,"yetfar":7483,"9id":7484,"ya3t":7485,"termtek":7486,"demi":7487,"yarha":7488,"sou9":7489,"tounesna":7490,"mates":7491,"lebsa":7492,"flousse":7493,"metna":7494,"che9":7495,"3alli":7496,"lelhom":7497,"bladou":7498,"na3r":7499,"kola":7500,"kodem":7501,"tracha7":7502,"mechin":7503,"tnajam":7504,"pression":7505,"3adel":7506,"ze9":7507,"ess7i7":7508,"harba":7509,"mahleh":7510,"mahlekom":7511,"mahzla":7512,"waldek":7513,"wa9fa":7514,"choi":7515,"kkkkkkk":7516,"ser9":7517,"kelem":7518,"7a9na":7519,"come":7520,"nsitou":7521,"lllll":7522,"jebna":7523,"guel":7524,"iiih":7525,"9admou":7526,"propo":7527,"testana":7528,"testehel":7529,"manaj":7530,"yer7mou":7531,"joeur":7532,"nharin":7533,"broo":7534,"zebla":7535,"wlhh":7536,"ultra":7537,"elkoll":7538,"majd":7539,"na9sa":7540,"ye7mik":7541,"rayis":7542,"buz":7543,"3etha":7544,"l9anet":7545,"hathaka":7546,"mtk":7547,"f9in":7548,"yelzemha":7549,"moslmin":7550,"borhen":7551,"nard":7552,"le7keya":7553,"jandouba":7554,"najmo":7555,"mafhm":7556,"mezelou":7557,"hmdlh":7558,"mta3ik":7559,"3asma":7560,"yo5roj":7561,"yo93od":7562,"lazmek":7563,"ychfih":7564,"nikomek":7565,"view":7566,"sobhan":7567,"nebki":7568,"publique":7569,"nkamlou":7570,"to5roj":7571,"mkch":7572,"siyessi":7573,"ywaf9ik":7574,"njibo":7575,"mas2oul":7576,"hihihihi":7577,"momken":7578,"yichfih":7579,"girl":7580,"waldih":7581,"tjrs":7582,"bhima":7583,"battala":7584,"tarajji":7585,"tnajjem":7586,"princi":7587,"3ejbetni":7588,"ma3roufa":7589,"essebsi":7590,"mojrem":7591,"5ef":7592,"7ch":7593,"8ira":7594,"9da":7595,"9weya":7596,"awa":7597,"adha":7598,"arab":7599,"a3li":7600,"age":7601,"bref":7602,"bdina":7603,"hbel":7604,"jd":7605,"jbal":7606,"jbali":7607,"l4":7608,"lweh":7609,"mzel":7610,"omar":7611,"pc":7612,"rwe":7613,"rkhi":7614,"sch":7615,"see":7616,"tchid":7617,"wd":7618,"wro":7619,"wbara":7620,"w3ed":7621,"wooo":7622,"yro":7623,"zna":7624,"zor":7625,"hali":7626,"maja":7627,"rakk":7628,"labas":7629,"chr":7630,"lilah":7631,"nag":7632,"nabi":7633,"naja7":7634,"ya5ra":7635,"tare":7636,"tass":7637,"ta3i":7638,"tagh":7639,"3all":7640,"3alouch":7641,"binek":7642,"etheb":7643,"bani":7644,"balik":7645,"esmek":7646,"erra":7647,"erhab":7648,"chaf":7649,"chahed":7650,"ti3":7651,"hina":7652,"kama":7653,"kadha":7654,"kadeb":7655,"7aba":7656,"fala":7657,"fans":7658,"ebhom":7659,"jalha":7660,"lahom":7661,"dime":7662,"daber":7663,"damna":7664,"m3aaa":7665,"m3adech":7666,"regi":7667,"mousalsel":7668,"9atha":7669,"homlek":7670,"rousna":7671,"kolt":7672,"kolli":7673,"kollo":7674,"yeheb":7675,"brah":7676,"neyek":7677,"moto":7678,"mosalsel":7679,"barlamen":7680,"wecha3b":7681,"wejeh":7682,"ooool":7683,"thlou":7684,"likleb":7685,"weldin":7686,"7ijeb":7687,"7izb":7688,"dhrab":7689,"papara":7690,"chi5a":7691,"chikha":7692,"khyr":7693,"khiir":7694,"akel":7695,"yourid":7696,"yeti":7697,"jena":7698,"seu":7699,"9ou9":7700,"9iya":7701,"ma3netha":7702,"a7wel":7703,"urs":7704,"souh":7705,"tekh":7706,"man7eb":7707,"zour":7708,"matloub":7709,"bona":7710,"yestehel":7711,"dos":7712,"dope":7713,"betkom":7714,"9ofa":7715,"kod":7716,"9albou":7717,"hhhhhhhhhhhhhhhhhhhhhhh":7718,"heth":7719,"3adda":7720,"mayel":7721,"zeyid":7722,"la7dha":7723,"trem":7724,"jem3i":7725,"sofi":7726,"as7ab":7727,"te3ba":7728,"sant":7729,"abtal":7730,"3arfa":7731,"7oriya":7732,"technique":7733,"bikri":7734,"compris":7735,"5al9":7736,"guys":7737,"klemk":7738,"klemha":7739,"kontou":7740,"5ouna":7741,"darna":7742,"darhom":7743,"bint":7744,"sebssi":7745,"bnaya":7746,"procha":7747,"ma3ana":7748,"tesh":7749,"3maltha":7750,"brk":7751,"mskina":7752,"hahahahahaha":7753,"ra9btek":7754,"ssssss":7755,"jus":7756,"vers":7757,"yfadhal":7758,"port":7759,"jawna":7760,"e3ti":7761,"wa9teli":7762,"khouh":7763,"bank":7764,"l3ama":7765,"l3alem":7766,"sident":7767,"msad":7768,"lezemha":7769,"5obz":7770,"jbouch":7771,"tkt":7772,"hasbi":7773,"korssi":7774,"3a9li":7775,"ne9sin":7776,"beaute":7777,"hadika":7778,"janjoun":7779,"2015":7780,"2016":7781,"najm":7782,"milliar":7783,"tayba":7784,"y3tik":7785,"hathika":7786,"rassek":7787,"salafi":7788,"brouk":7789,"oskot":7790,"nosbrou":7791,"uuuuuuuuuuuuuuuuuuuuuuuuuuuuuuuu":7792,"habib":7793,"n9olik":7794,"b3adhha":7795,"dnadik":7796,"natija":7797,"mla3biya":7798,"wadh3":7799,"de5el":7800,"pppppppp":7801,"tttttttttttttttt":7802,"dhekra":7803,"rayess":7804,"bellehy":7805,"linti5abet":7806,"milliards":7807,"league":7808,"nwaliw":7809,"borjoliya":7810,"mouwaten":7811,"islami":7812,"mseken":7813,"systeme":7814,"nikelhom":7815,"maquillage":7816,"revolution":7817,"lyrics":7818,"7ine":7819,"7dith":7820,"7leybi":7821,"atha":7822,"aziz":7823,"cl":7824,"dbou":7825,"dnc":7826,"eet":7827,"elah":7828,"erais":7829,"fee":7830,"fommek":7831,"i3inek":7832,"jma":7833,"ld":7834,"lmar":7835,"lelli":7836,"lkhir":7837,"lblad":7838,"nb":7839,"nssi":7840,"nsal":7841,"og":7842,"over":7843,"sd":7844,"sle":7845,"spo":7846,"t5":7847,"tg":7848,"tri9":7849,"wni":7850,"wbech":7851,"wmay":7852,"wba3d":7853,"yj":7854,"ybou":7855,"yenta":7856,"ymchi":7857,"ytab3ou":7858,"ouer":7859,"habes":7860,"halouma":7861,"ma5ir":7862,"rapeur":7863,"lati":7864,"chra":7865,"chon":7866,"ligue":7867,"tarou":7868,"tayeb":7869,"3awin":7870,"le3b":7871,"letoil":7872,"bitha":7873,"birasmi":7874,"bilite":7875,"waka":7876,"waslou":7877,"warina":7878,"wani3ma":7879,"finou":7880,"fidel":7881,"et7in":7882,"etwansa":7883,"bagra":7884,"saheb":7885,"sakker":7886,"omom":7887,"chaba":7888,"kayen":7889,"kader":7890,"kalib":7891,"eddine":7892,"silim":7893,"fassa":7894,"louta":7895,"lahin":7896,"diha":7897,"rabi3":7898,"m3aaaaa":7899,"ilo":7900,"reali":7901,"mouhem":7902,"tew":7903,"9ayma":7904,"bou3":7905,"roub":7906,"houta":7907,"kouh":7908,"koune":7909,"me3alem":7910,"mima":7911,"decu":7912,"5ale":7913,"5araj":7914,"mode":7915,"motro":7916,"mene":7917,"barrou":7918,"bej":7919,"belah":7920,"zad":7921,"zabi":7922,"vois":7923,"oooool":7924,"thmer":7925,"weldek":7926,"rable":7927,"ta3wi":7928,"7iya":7929,"rohi":7930,"ro7ik":7931,"gaz":7932,"khatr":7933,"sloumaa":7934,"aktar":7935,"jec":7936,"clube":7937,"9oub3a":7938,"9ich":7939,"ress":7940,"termet":7941,"ahel":7942,"kifo":7943,"souch":7944,"sourya":7945,"hewya":7946,"heyla":7947,"man9olek":7948,"berk":7949,"cep":7950,"noss":7951,"mouchkla":7952,"3alm":7953,"3ouh":7954,"a3leh":7955,"yod5el":7956,"ta7ou":7957,"ta7founa":7958,"mta3k":7959,"beth":7960,"9olet":7961,"rajell":7962,"intideb":7963,"ghrab":7964,"koth":7965,"mask":7966,"maso":7967,"masma3":7968,"tran":7969,"tnaber":7970,"tnaket":7971,"hhhhhhhhhhhhhhhhhhhhhhhhhh":7972,"zef":7973,"zeh":7974,"tete":7975,"amra":7976,"zzel":7977,"ssif":7978,"billeh":7979,"dinek":7980,"retha":7981,"bless":7982,"iiim":7983,"ayya":7984,"werteni":7985,"rasha":7986,"profi":7987,"progra":7988,"we7na":7989,"fer8a":7990,"mawthou":7991,"3aycha":7992,"nnnnnn":7993,"sub":7994,"sul":7995,"wraha":7996,"ywafa9":7997,"machalla":7998,"ta3melha":7999,"sam7ou":8000,"samsara":8001,"samsoum":8002,"majless":8003,"jawek":8004,"9a3dou":8005,"9a3dine":8006,"l3ada":8007,"nechri":8008,"bountou":8009,"ghirek":8010,"f9ir":8011,"8ani":8012,"tefha":8013,"jenjon":8014,"nakrah":8015,"ykeb":8016,"andna":8017,"ta5bou":8018,"t5amem":8019,"hathom":8020,"y7el":8021,"jouerette":8022,"prise":8023,"yakrah":8024,"echabeb":8025,"sawrou":8026,"9arwi":8027,"iiiiiit":8028,"la9ta":8029,"chebbi":8030,"3endek":8031,"kedeb":8032,"ya5raw":8033,"5arjet":8034,"saidi":8035,"fadhel":8036,"lteli":8037,"musique":8038,"7ajja":8039,"tajamo3":8040,"7okoma":8041,"fthaya7":8042,"d5alt":8043,"7awlou":8044,"vvvvvvvv":8045,"ghannouchi":8046,"lamouchia":8047,"nshalah":8048,"farhanin":8049,"masi5":8050,"cinema":8051,"respecte":8052,"eriahi":8053,"gorge":8054,"chompi":8055,"decision":8056,"tatawin":8057,"responsa":8058,"english":8059,"jouaret":8060,"scenario":8061,"tafrika":8062,"faouzi":8063,"problem":8064,"27":8065,"3z":8066,"8riba":8067,"95":8068,"9ii":8069,"9lil":8070,"adem":8071,"ahad":8072,"bkolkom":8073,"eeb":8074,"fomou":8075,"gek":8076,"grib":8077,"hda":8078,"hbat":8079,"ith":8080,"ijou":8081,"i5al":8082,"k2":8083,"ku":8084,"keka":8085,"m5":8086,"mba":8087,"msh":8088,"mwaher":8089,"pff":8090,"pret":8091,"soo":8092,"trabi":8093,"tchi":8094,"tsal":8095,"tbad":8096,"tsayeb":8097,"tnech":8098,"uch":8099,"w3la":8100,"wsa5":8101,"hakk":8102,"halek":8103,"hatem":8104,"mazem":8105,"ma5i":8106,"mata3ref":8107,"ma8ir":8108,"maye3":8109,"elu":8110,"eljam3iya":8111,"chm":8112,"chni":8113,"chfama":8114,"naaa":8115,"nais":8116,"nala3bou":8117,"tawel":8118,"3arabi":8119,"lequi":8120,"le3ba":8121,"bi7":8122,"bilah":8123,"bizar":8124,"wa7i":8125,"fiii":8126,"fiere":8127,"et7eb":8128,"babou":8129,"sada":8130,"saff":8131,"sarah":8132,"omor":8133,"ommik":8134,"eseb":8135,"erek":8136,"chadou":8137,"chadin":8138,"7ayel":8139,"emin":8140,"emte3":8141,"sira":8142,"farah":8143,"fayda":8144,"kib":8145,"kifak":8146,"lou7ichi":8147,"niko":8148,"almo":8149,"aller":8150,"rabiiii":8151,"m3athab":8152,"m3aaak":8153,"slimmm":8154,"9ass":8155,"yema":8156,"yeah":8157,"year":8158,"yecer":8159,"houdi":8160,"dee":8161,"5ayen":8162,"5amsa":8163,"barca":8164,"begh":8165,"lemna":8166,"we3a":8167,"nestan":8168,"thage":8169,"welle":8170,"ta3bir":8171,"ro9":8172,"irjel":8173,"irhab":8174,"douda":8175,"gay":8176,"game":8177,"lunet":8178,"fous":8179,"rreb":8180,"khalil":8181,"quer":8182,"quement":8183,"rajli":8184,"mal9a":8185,"hona":8186,"yethom":8187,"yetrabba":8188,"jeel":8189,"9im":8190,"nouslou":8191,"riadh":8192,"hezz":8193,"matnajem":8194,"ghada":8195,"bercha":8196,"mett":8197,"wa7lek":8198,"5irlek":8199,"sayd":8200,"ta7kou":8201,"ba3th":8202,"betbi3a":8203,"intidabet":8204,"gher":8205,"ghrib":8206,"mash":8207,"track":8208,"tetkalem":8209,"halna":8210,"balhom":8211,"harb":8212,"mahlak":8213,"talka":8214,"mnha":8215,"tanfa3":8216,"lilhom":8217,"hadhouma":8218,"wahkom":8219,"rrrrrrr":8220,"dini":8221,"jebhom":8222,"wertani":8223,"3inina":8224,"nseb":8225,"efhem":8226,"n7ebo":8227,"jom3a":8228,"warri":8229,"fehmin":8230,"koulna":8231,"3idk":8232,"joyeux":8233,"twahach":8234,"aleha":8235,"lkor":8236,"t7b":8237,"t7ine":8238,"nnnnn":8239,"3andouch":8240,"enchalh":8241,"dubai":8242,"affa":8243,"majech":8244,"ibn":8245,"3akes":8246,"dislikes":8247,"yabka":8248,"ya3tiha":8249,"tonis":8250,"moslem":8251,"khit":8252,"brojla":8253,"excelle":8254,"ta5rou":8255,"ennass":8256,"mezwed":8257,"carthage":8258,"montage":8259,"slimani":8260,"vues":8261,"fahmin":8262,"3morna":8263,"honteux":8264,"wledha":8265,"entrain":8266,"dayra":8267,"mimtek":8268,"na3rfouh":8269,"bravoooooooooooo":8270,"ye5dim":8271,"filastin":8272,"93adt":8273,"kilabou":8274,"b3athna":8275,"ta7ia":8276,"ywafkek":8277,"nestanou":8278,"hhhhhhhhhhhhhhhhhhhhhhhhhhhhhhhhhhhhhhhhhhhhhhhhhhhhhhhhhhhhhhhhhhhhhhhhhhhhhhhhhhhhhhhhhhhhhhhhhhhhhhhhhhhhhhhhhhhhhhhhhhhhhhhh":8279,"test7a9":8280,"titrouet":8281,"chleka":8282,"chleyek":8283,"mas2oulin":8284,"nshallah":8285,"cccccccc":8286,"zouhair":8287,"dkhol":8288,"victoire":8289,"america":8290,"ghneyet":8291,"mojtama3":8292,"karoui":8293,"original":8294,"verite":8295,"feeling":8296,"recrutment":8297,"gorgeous":8298,"3loulou":8299,"79":8300,"9dima":8301,"9sir":8302,"97ba":8303,"adhi":8304,"amor":8305,"b2":8306,"bba":8307,"cit":8308,"cmn":8309,"eem":8310,"echay":8311,"e5i":8312,"fd":8313,"hmek":8314,"ina3":8315,"lslim":8316,"lber":8317,"ljam3ia":8318,"lkoum":8319,"lbarra":8320,"lfehri":8321,"lmochkla":8322,"mni":8323,"mga":8324,"ndh":8325,"niii":8326,"nched":8327,"nend":8328,"nraj3ou":8329,"nmoutou":8330,"ost":8331,"pha":8332,"rch":8333,"sb":8334,"sra":8335,"swe":8336,"sto":8337,"snn":8338,"shay":8339,"t9al":8340,"t3aw":8341,"tfi9":8342,"t7ar":8343,"wm3a":8344,"wnchala":8345,"ytou":8346,"y7o":8347,"ydir":8348,"ysa7a7":8349,"ytraba":8350,"zy":8351,"zmou":8352,"hado":8353,"male":8354,"maba":8355,"maaak":8356,"rabou":8357,"radh":8358,"rached":8359,"latif":8360,"elii":8361,"elja":8362,"elboutoula":8363,"chrib":8364,"chma3neha":8365,"chbeba":8366,"hhor":8367,"lir":8368,"liby":8369,"nada":8370,"nami":8371,"yada":8372,"yath":8373,"yaaaa":8374,"yasir":8375,"tama":8376,"taar":8377,"tayech":8378,"tay7":8379,"3adou":8380,"lemou":8381,"wahad":8382,"wa9a3":8383,"barik":8384,"inn":8385,"sau":8386,"same":8387,"sabit":8388,"saib":8389,"sakrou":8390,"eslim":8391,"este":8392,"esper":8393,"tist":8394,"hida":8395,"hizb":8396,"kafa":8397,"kayet":8398,"kabet":8399,"eder":8400,"edda":8401,"emna":8402,"rig":8403,"rito":8404,"riye7i":8405,"fai":8406,"fassed":8407,"jaben":8408,"louf":8409,"dib":8410,"die":8411,"dicta":8412,"nizar":8413,"touslou":8414,"ilha":8415,"moussi":8416,"tefah":8417,"yeek":8418,"sso":8419,"kouni":8420,"capa":8421,"mehom":8422,"mita":8423,"mikom":8424,"mith":8425,"milia":8426,"5ayer":8427,"moss":8428,"3idik":8429,"lemkach":8430,"lemkach5a":8431,"jina":8432,"belha9":8433,"thbou":8434,"thaf":8435,"bechwaya":8436,"melyar":8437,"tog":8438,"ta3ya":8439,"minna":8440,"lly":8441,"gabi":8442,"galeb":8443,"jouh":8444,"lo3ba":8445,"jamhour":8446,"khalina":8447,"raj3et":8448,"kount":8449,"secu":8450,"ma3ch":8451,"ma3en":8452,"3aml":8453,"fihem":8454,"souissi":8455,"heure":8456,"manche":8457,"its":8458,"matji":8459,"ghana":8460,"mabrouuuuk":8461,"noir":8462,"ssara":8463,"leble":8464,"keen":8465,"far8a":8466,"artic":8467,"merda":8468,"dona":8469,"mta3o":8470,"betbi":8471,"intikhabet":8472,"ghlot":8473,"fffffff":8474,"zeyda":8475,"tetfar":8476,"essna":8477,"aaaaaaaaaaaaaaaaaa":8478,"mnk":8479,"tansa":8480,"seri":8481,"yedi":8482,"3arka":8483,"parce":8484,"7ossed":8485,"3ezz":8486,"ma7kma":8487,"5ib":8488,"dinia":8489,"comenta":8490,"bleed":8491,"m3ya":8492,"sard":8493,"cheda":8494,"ejjam3iya":8495,"badr":8496,"bader":8497,"sahla":8498,"eri3":8499,"mskin":8500,"yalli":8501,"ywaff":8502,"mazeltou":8503,"sonia":8504,"hadak":8505,"theya":8506,"yjiw":8507,"plutot":8508,"zebii":8509,"ykamel":8510,"tjibelna":8511,"galya":8512,"e7chem":8513,"dance":8514,"fekret":8515,"5obza":8516,"yelzemhom":8517,"nakrhou":8518,"chemch":8519,"etat":8520,"cha3rek":8521,"matchs":8522,"3a9lia":8523,"torbia":8524,"sorre9":8525,"yanfa3":8526,"dawr":8527,"bhama":8528,"chofna":8529,"choftou":8530,"2012":8531,"barnamij":8532,"mezelet":8533,"n7b":8534,"future":8535,"futur":8536,"a3lam":8537,"class":8538,"drapeau":8539,"3endou":8540,"7orra":8541,"brasmi":8542,"petrole":8543,"7achetna":8544,"ndouch":8545,"abonnes":8546,"kool":8547,"sym":8548,"wadh7a":8549,"b3athha":8550,"3raft":8551,"tahane":8552,"gaddafi":8553,"b3adhom":8554,"zaama":8555,"nestanaw":8556,"kedhba":8557,"1000000":8558,"oumourek":8559,"bousbi3":8560,"romdhan":8561,"4alia":8562,"fond":8563,"histoire":8564,"fessed":8565,"lbera7":8566,"israel":8567,"mou3ardha":8568,"ayoub":8569,"journaliste":8570,"suppor":8571,"important":8572,"botox":8573,"sluma":8574,"35":8575,"3j":8576,"45":8577,"4odwa":8578,"7eta":8579,"9il":8580,"9sou":8581,"9rouda":8582,"a4":8583,"ain":8584,"aki":8585,"atef":8586,"byy":8587,"blk":8588,"b9it":8589,"book":8590,"bdew":8591,"clib":8592,"dya":8593,"ejey":8594,"fti":8595,"ht":8596,"hee":8597,"ihem":8598,"i5ali":8599,"irajil":8600,"kwa":8601,"lf":8602,"lch":8603,"lsen":8604,"ltounis":8605,"l7am":8606,"mhak":8607,"nchi":8608,"nkha":8609,"n3ich":8610,"nchof":8611,"rw":8612,"syesa":8613,"tja":8614,"tlo":8615,"t3awed":8616,"tooooop":8617,"wcha":8618,"wmen":8619,"wkha":8620,"whowa":8621,"yhab":8622,"ytir":8623,"yti7":8624,"yjii":8625,"zmen":8626,"zza":8627,"hasi":8628,"hawel":8629,"made":8630,"maan":8631,"marit":8632,"ma3andha":8633,"rakoum":8634,"lawej":8635,"laybi":8636,"elhe":8637,"ches":8638,"lioum":8639,"ligne":8640,"nata":8641,"na7ou":8642,"yam3alem":8643,"ya5ou":8644,"ta5ou":8645,"lefr":8646,"englais":8647,"fif":8648,"ettounsia":8649,"bare":8650,"sa3at":8651,"esha":8652,"esta":8653,"eshih":8654,"espere":8655,"errais":8656,"iiid":8657,"charat":8658,"tilna":8659,"kasser":8660,"7att":8661,"ri7et":8662,"famil":8663,"jala":8664,"jalou":8665,"jahil":8666,"lahram":8667,"diin":8668,"diga":8669,"dakhal":8670,"dayrin":8671,"toucha":8672,"almou":8673,"olya":8674,"m3ach":8675,"slimin":8676,"mou2":8677,"moua":8678,"moul":8679,"boukom":8680,"yezz":8681,"houh":8682,"houlou":8683,"kouha":8684,"koume":8685,"defe3":8686,"5ad":8687,"nena":8688,"nehom":8689,"mo7a":8690,"more":8691,"mo3ar":8692,"modareb":8693,"barbi":8694,"barri":8695,"zara":8696,"zabor":8697,"belk":8698,"theni":8699,"pablo":8700,"douni":8701,"gass":8702,"china":8703,"chiya":8704,"chien":8705,"jouli":8706,"lokh":8707,"martek":8708,"marbo":8709,"marche":8710,"marhba":8711,"mar7be":8712,"feragh":8713,"khamja":8714,"lekbar":8715,"wina3mou":8716,"yout":8717,"yetla3":8718,"se3":8719,"nou3":8720,"3amha":8721,"chouka":8722,"idin":8723,"yarhamou":8724,"filna":8725,"manque":8726,"iiiiiiiiiiiii":8727,"iiiiiiiiiiiiiii":8728,"jam3ietna":8729,"mat7ebech":8730,"now":8731,"ssam":8732,"baravo":8733,"beni":8734,"bennour":8735,"met5al":8736,"fargha":8737,"far7an":8738,"ardh":8739,"a3sa":8740,"yokh":8741,"ta7chou":8742,"hammami":8743,"oooooooooooooo":8744,"sten":8745,"na3mil":8746,"netfli":8747,"ba3louch":8748,"auto":8749,"9o7b":8750,"masra7i":8751,"tra7":8752,"trach":8753,"train":8754,"trans":8755,"mechekel":8756,"flousk":8757,"halbled":8758,"soh":8759,"thiz":8760,"hekom":8761,"te3mel":8762,"wahch":8763,"kalbi":8764,"sanfou":8765,"3arf":8766,"3arfin":8767,"parents":8768,"ramz":8769,"sellimi":8770,"compa":8771,"nsi7a":8772,"mmmmmm":8773,"jebtou":8774,"chwayya":8775,"3ind":8776,"bientot":8777,"5ouf":8778,"fore":8779,"lehin":8780,"ynabrou":8781,"ma3alem":8782,"manajam":8783,"yer7am":8784,"impo":8785,"sallem":8786,"nharet":8787,"zebyy":8788,"3os":8789,"machala":8790,"thebti":8791,"machrou":8792,"eeeeeeeeee":8793,"baaarcha":8794,"ssement":8795,"buteur":8796,"yabta":8797,"attaque":8798,"khidma":8799,"andhom":8800,"exp":8801,"cha3biya":8802,"t5arej":8803,"masala7":8804,"9atlou":8805,"wwwww":8806,"mezyana":8807,"cha5siya":8808,"okhrej":8809,"monta5ab":8810,"yakrhou":8811,"mafhim":8812,"rjoulia":8813,"yhib":8814,"ajma3in":8815,"madama":8816,"i5ti":8817,"fdhaye7":8818,"raabi":8819,"tal9ah":8820,"mimtak":8821,"93adna":8822,"mamstou":8823,"gaddefi":8824,"yomken":8825,"prepara":8826,"etofla":8827,"tsebou":8828,"100000":8829,"4alta":8830,"chrifa":8831,"arret":8832,"koursi":8833,"9orbi":8834,"hlouwa":8835,"battal":8836,"mda5lek":8837,"traba7kom":8838,"aaaaaaaaaaaaaaaaaaaaaaaaaaaaaaaaaaaaaaaaaaaaaaaaaaaaaaaaaaaaaaaaaaaaaaaaaaaaaaaaaaaaaaaaaaaaaaaaaaaaaaaaaaaaaaaaaaaaaaaaaaaaaaaaaaaaaaaaaaaaaaaaaaaaaaaaaaaaaaaaaaaaaaaaaaaaaaaaaaaaaaaaaaaaaaaaaaaaaaaaaaaaaaaaaaaaaaaaaaaaaaaaaaaaaaaaaaaaaaaaaaaaaaaaaaaaaaaaaaaaaaaaaaaaaaaaaaaaaaaaaaaaaaaaaaaaaaaaaaaaaaaaaaaaaaaaaaaaaaaaaaaaaaaaaaaaaaaaaaaaaaaaaaaaaaaaaaaaaaaaaaaaaaaaaaaaaaaaaaaaaaaaaaaaaaaaaaaaaaaaaaaaaaaaaaaaaaaaaaaaaaaaaaaaaaaaaaaaaaaaaaaaaaaaaaaaaaaaaaaaaaaaaaaaaaaaaaaaaaaaaaaaaaaaaaaaaaaaaaaaaaaaaaaaaaaa":8839,"ro7ha":8840,"ma3andich":8841,"liberte":8842,"bidaya":8843,"kawarji":8844,"ramadan":8845,"elections":8846,"medecine":8847,"yekhdmou":8848,"democra":8849,"tarred":8850,"always":8851,"netflix":8852,"400":8853,"7kit":8854,"96":8855,"9w":8856,"9ni":8857,"9ray":8858,"aza":8859,"a3bed":8860,"amis":8861,"avoir":8862,"bhal":8863,"b7o":8864,"bsa7":8865,"ejay":8866,"fthi":8867,"gt":8868,"gda":8869,"iri":8870,"i9ou":8871,"ibarek":8872,"jbed":8873,"lhou":8874,"lwa9t":8875,"lclip":8876,"l8alya":8877,"mssa":8878,"nf":8879,"nj":8880,"nw":8881,"nkol":8882,"niik":8883,"n7ibou":8884,"oy":8885,"oki":8886,"redi":8887,"sm":8888,"swa":8889,"stou":8890,"sgar":8891,"tsay":8892,"tbal":8893,"tkal":8894,"tiii":8895,"t3awnou":8896,"tghani":8897,"wdima":8898,"wja3":8899,"wsayeb":8900,"wedi":8901,"wsol":8902,"y9o":8903,"y3ichou":8904,"y9ader":8905,"ouin":8906,"oulou":8907,"ouuuuu":8908,"hamm":8909,"maek":8910,"mare":8911,"majeb":8912,"ma3amlou":8913,"rae":8914,"raso":8915,"radhi":8916,"la5bar":8917,"elm":8918,"el3am":8919,"chere":8920,"hhi":8921,"yasi":8922,"yasta":8923,"tabi":8924,"taram":8925,"tabarka":8926,"tassir":8927,"3abi":8928,"biled":8929,"wati":8930,"wass":8931,"wassi":8932,"walew":8933,"fima":8934,"fibeli":8935,"aandou":8936,"ets":8937,"etelha":8938,"bachou":8939,"ink":8940,"info":8941,"investi":8942,"sava":8943,"sabat":8944,"sari9":8945,"chaque":8946,"tiha":8947,"titer":8948,"tista":8949,"hijeb":8950,"katha":8951,"kazi":8952,"katar":8953,"edna":8954,"7awla":8955,"7atin":8956,"rijal":8957,"fadit":8958,"faux":8959,"fasad":8960,"kili":8961,"dimanche":8962,"dari":8963,"niha":8964,"nidaa":8965,"nidham":8966,"toutes":8967,"allahi":8968,"m3aa":8969,"iltou":8970,"moudareb":8971,"te9ef":8972,"9ari":8973,"9asba":8974,"9ays":8975,"bounou":8976,"houssem":8977,"cash":8978,"dela":8979,"5atar":8980,"5awla":8981,"5atik":8982,"5arya":8983,"movie":8984,"bey":8985,"beed":8986,"betawfi9":8987,"we3":8988,"ist":8989,"isna":8990,"issam":8991,"zaki":8992,"zanat":8993,"ooooh":8994,"jitou":8995,"thech":8996,"thing":8997,"eeer":8998,"melk":8999,"melha":9000,"melek":9001,"zia":9002,"zitouni":9003,"7iss":9004,"roho":9005,"doula":9006,"minnou":9007,"llo":9008,"llhi":9009,"galia":9010,"chib":9011,"joue":9012,"loi":9013,"marzen":9014,"fehim":9015,"khat":9016,"khayba":9017,"khatrek":9018,"quence":9019,"sloumaaa":9020,"entidabet":9021,"jela":9022,"sec":9023,"sehel":9024,"ya3m":9025,"ya3n":9026,"ma3n":9027,"ma3ek":9028,"nouv":9029,"nouna":9030,"terma":9031,"3alamia":9032,"kifha":9033,"riadhi":9034,"tawal":9035,"manyek":9036,"jam3iyya":9037,"mat3":9038,"bentou":9039,"benza":9040,"tardouh":9041,"5irr":9042,"cheh":9043,"arwa":9044,"black":9045,"ooooooooo":9046,"mta3e":9047,"wenchalla":9048,"betna":9049,"9odam":9050,"mas5":9051,"masrou9":9052,"trage":9053,"floushom":9054,"contu":9055,"tet7a":9056,"mahboula":9057,"jemhour":9058,"heke":9059,"telhelna":9060,"kalma":9061,"mekla":9062,"yahdina":9063,"besif":9064,"3ef":9065,"maktoub":9066,"rahmou":9067,"karma":9068,"3ebra":9069,"mmmmm":9070,"guir":9071,"coun":9072,"rawlou":9073,"ezza":9074,"5outh":9075,"yechfiha":9076,"jomla":9077,"yar7m":9078,"joh":9079,"jdide":9080,"lkleb":9081,"sahtek":9082,"habs":9083,"nchlah":9084,"brvo":9085,"da5lek":9086,"teb9a":9087,"hanni":9088,"atrous":9089,"ykawrou":9090,"bahri":9091,"majhoud":9092,"sinn":9093,"rfouch":9094,"raykom":9095,"a5ta":9096,"te7seb":9097,"l3a9ba":9098,"msat":9099,"msaken":9100,"fa9ir":9101,"trod":9102,"jabha":9103,"ttttt":9104,"shit":9105,"rappeur":9106,"ta5eb":9107,"mritha":9108,"avis":9109,"na7nou":9110,"najmouch":9111,"3aliha":9112,"dakni":9113,"sa3d":9114,"sa3dek":9115,"n7bou":9116,"chekoun":9117,"hazha":9118,"las3ed":9119,"sma3na":9120,"sma3tha":9121,"solution":9122,"3endi":9123,"golo":9124,"official":9125,"slemtik":9126,"gedech":9127,"atten":9128,"abone":9129,"abonnement":9130,"hajja":9131,"rach7ou":9132,"9loub":9133,"mzia":9134,"2008":9135,"adidas":9136,"dzl":9137,"pouvoir":9138,"9asdawi":9139,"annaba":9140,"bakitni":9141,"7eja":9142,"nida2":9143,"chlayek":9144,"coller":9145,"mahomech":9146,"karahtouna":9147,"yonsorna":9148,"bassam":9149,"wedhni":9150,"mfach5a":9151,"baaaarcha":9152,"moslimin":9153,"general":9154,"faute":9155,"binzart":9156,"kresi":9157,"delice":9158,"nokta":9159,"wa7adha":9160,"resultats":9161,"premier":9162,"thi9etna":9163,"nshlh":9164,"affaires":9165,"article":9166,"1m":9167,"2k":9168,"3rou":9169,"5ol":9170,"8ou":9171,"93":9172,"9dou":9173,"9rit":9174,"arabi":9175,"b5":9176,"b3ou":9177,"baaaaaa":9178,"eil":9179,"e7eb":9180,"e5ir":9181,"f9ou":9182,"hl":9183,"ikom":9184,"idou":9185,"ifar":9186,"imout":9187,"jmi3":9188,"kess":9189,"lsou":9190,"lwali":9191,"ljam3iya":9192,"lkolou":9193,"mme":9194,"mbrouk":9195,"proud":9196,"rba":9197,"rwa7na":9198,"sram":9199,"srek":9200,"swe7":9201,"slaf":9202,"tlik":9203,"t7o":9204,"thoum":9205,"wki":9206,"went":9207,"wess":9208,"wkhay":9209,"xa":9210,"yw":9211,"ysi":9212,"yja":9213,"ytna":9214,"y3ay":9215,"ysam":9216,"y2a":9217,"yhezou":9218,"ydez":9219,"ydour":9220,"ouu":9221,"hatt":9222,"hasard":9223,"maria":9224,"ma9ol":9225,"majdi":9226,"matit":9227,"materi":9228,"lani":9229,"la5er":9230,"laire":9231,"elmarzouki":9232,"elkalb":9233,"elbeji":9234,"chir":9235,"liw":9236,"nayak":9237,"ya5dem":9238,"takel":9239,"table":9240,"3adha":9241,"letou":9242,"leflouss":9243,"entoma":9244,"biz":9245,"bima":9246,"biste":9247,"biih":9248,"wasa":9249,"wadha3":9250,"fill":9251,"aab":9252,"aamlou":9253,"aalih":9254,"etkoun":9255,"ettaraji":9256,"etta7ana":9257,"bama":9258,"balou":9259,"bath":9260,"badd":9261,"invit":9262,"ommok":9263,"esiya":9264,"erre":9265,"iib":9266,"tilha":9267,"hier":9268,"ka3ed":9269,"kanat":9270,"eddenya":9271,"7ama":9272,"7atet":9273,"sie":9274,"sil3a":9275,"riere":9276,"faj":9277,"jayech":9278,"jadara":9279,"lou7":9280,"lahwa":9281,"daba":9282,"daoui":9283,"toulna":9284,"toujour":9285,"alka":9286,"ily":9287,"reha":9288,"tehom":9289,"9ais":9290,"kolchay":9291,"meet":9292,"miza":9293,"5atro":9294,"nees":9295,"moyen":9296,"mosal":9297,"iseb":9298,"voti":9299,"voter":9300,"voleur":9301,"then":9302,"thki":9303,"dhahar":9304,"zimha":9305,"tod5el":9306,"tod5ol":9307,"rose":9308,"doussi":9309,"minu":9310,"minis":9311,"elich":9312,"gadi":9313,"mar5":9314,"mardh":9315,"mar7ba":9316,"fouah":9317,"jamil":9318,"khayef":9319,"enti5a":9320,"youja3":9321,"younsi":9322,"hobi":9323,"hotel":9324,"jehel":9325,"ma3ej":9326,"3amek":9327,"3alamin":9328,"soutou":9329,"sousse":9330,"tektheb":9331,"tekdhbou":9332,"mabrouka":9333,"mabrouuk":9334,"berjelha":9335,"lebess":9336,"lebhim":9337,"tarem":9338,"tarmek":9339,"che7":9340,"chebi":9341,"che3b":9342,"arfa":9343,"kanek":9344,"yoss":9345,"yodhhor":9346,"blanc":9347,"yessir":9348,"domaine":9349,"wenchala":9350,"okra":9351,"nchal":9352,"9o7eb":9353,"ghel":9354,"meche":9355,"tnahi":9356,"9alkom":9357,"9aldou":9358,"hethy":9359,"congratu":9360,"mayhi":9361,"zeur":9362,"la7dith":9363,"la7leybi":9364,"mnech":9365,"tanja7":9366,"yiin":9367,"famach":9368,"ab9a":9369,"klamou":9370,"mestir":9371,"comprend":9372,"llllll":9373,"bleu":9374,"bleme":9375,"zidna":9376,"3inou":9377,"maaneha":9378,"dhil":9379,"jomho":9380,"pourtant":9381,"yna7i":9382,"probleme":9383,"achraf":9384,"keteb":9385,"iiiiiiiiiiiiiiiiiiii":9386,"3malto":9387,"twasel":9388,"yehki":9389,"yehdina":9390,"333":9391,"sud":9392,"ywafe9":9393,"machari":9394,"tfouuuuu":9395,"haythem":9396,"keml":9397,"a9reb":9398,"tasla7":9399,"onsor":9400,"duo":9401,"wost":9402,"nhebo":9403,"t3alem":9404,"coeur":9405,"baarcha":9406,"e7tira":9407,"ta9ef":9408,"siyassi":9409,"tefhmou":9410,"mosta7il":9411,"attaq":9412,"iffa":9413,"ra7mou":9414,"khalihom":9415,"equipet":9416,"hasra":9417,"etait":9418,"korbi":9419,"lenna":9420,"debut":9421,"masale7":9422,"3lch":9423,"hathouma":9424,"torbya":9425,"fesda":9426,"police":9427,"okhti":9428,"siassa":9429,"anima":9430,"yemchiw":9431,"sawtou":9432,"chekh":9433,"zantou":9434,"federa":9435,"yar7emha":9436,"yar7emhom":9437,"a3tih":9438,"8irek":9439,"tbarkala":9440,"yo5rjou":9441,"jedid":9442,"lbs":9443,"nchoufouk":9444,"ya5rou":9445,"def3ou":9446,"defenseur":9447,"algerien":9448,"ybi3ou":9449,"mademek":9450,"ychedha":9451,"n9olou":9452,"mathabina":9453,"t9adem":9454,"filast":9455,"massakh":9456,"3melt":9457,"sportif":9458,"dabbegh":9459,"9ellet":9460,"tnekna":9461,"photos":9462,"t9oum":9463,"etoili":9464,"wa7dk":9465,"yahdikom":9466,"william":9467,"jawebni":9468,"ya7fdhek":9469,"yilzim":9470,"partage":9471,"3ndk":9472,"ta5ralou":9473,"grinta":9474,"yzidek":9475,"yfadhlek":9476,"london":9477,"khlifi":9478,"objec":9479,"yehlekhom":9480,"m3eh":9481,"decembre":9482,"regarde":9483,"octo":9484,"3zizti":9485,"professionnel":9486,"tfadlik":9487,"protege":9488,"2tamar":9489,"bal3out":9490,"championat":9491,"rwehkom":9492,"ultras":9493,"jusqu":9494,"sam7ouni":9495,"01":9496,"2lou":9497,"3s":9498,"3tak":9499,"3ndi":9500,"5fou":9501,"5ritou":9502,"7er":9503,"7ess":9504,"7lib":9505,"7iit":9506,"7md":9507,"8ne":9508,"800":9509,"8ona":9510,"9ine":9511,"9har":9512,"9hab":9513,"a5ir":9514,"atfa":9515,"a3likom":9516,"axe":9517,"bssa":9518,"brek":9519,"bkolhom":9520,"ctu":9521,"diii":9522,"dkhi":9523,"ecou":9524,"ezebi":9525,"eza7":9526,"gtel":9527,"gement":9528,"hbou":9529,"iem":9530,"i3adi":9531,"isaber":9532,"kt":9533,"lmi":9534,"lhak":9535,"l7al9a":9536,"m9":9537,"mlah":9538,"nkar":9539,"n3awnou":9540,"od":9541,"ron":9542,"rmi":9543,"sho":9544,"tm":9545,"tess":9546,"tbah":9547,"t9oli":9548,"tlawjou":9549,"wkif":9550,"woi":9551,"wjomhour":9552,"why":9553,"y7ibou":9554,"zr":9555,"hasa":9556,"habou":9557,"have":9558,"hazou":9559,"hassi":9560,"haram":9561,"hazina":9562,"ma5a":9563,"mache":9564,"mafiha":9565,"maoi":9566,"masar":9567,"masir":9568,"matheb":9569,"mata3mel":9570,"layam":9571,"chu":9572,"lig":9573,"liclub":9574,"nakh":9575,"tag":9576,"tabe3":9577,"3ah":9578,"3azi":9579,"3ahed":9580,"lej":9581,"lela":9582,"le3eb":9583,"leeee":9584,"birou":9585,"bith":9586,"wafa":9587,"wassil":9588,"wahef":9589,"fiiik":9590,"aamal":9591,"aaleh":9592,"bata":9593,"sabar":9594,"sakar":9595,"sa9et":9596,"esti":9597,"eke":9598,"iiik":9599,"charef":9600,"tiba":9601,"ti5dim":9602,"kano":9603,"edana":9604,"7af":9605,"7abet":9606,"emou":9607,"sina":9608,"sidik":9609,"fana":9610,"fa9o":9611,"eby":9612,"ebni":9613,"kill":9614,"loud":9615,"laho":9616,"dami":9617,"ni7":9618,"nidha":9619,"nide2":9620,"touu":9621,"al9ab":9622,"m3am":9623,"m3amel":9624,"illy":9625,"mou3":9626,"mousa":9627,"mouto":9628,"moussa":9629,"tey":9630,"9asa":9631,"9ata3":9632,"9afe":9633,"ssine":9634,"cara":9635,"mef":9636,"mesa":9637,"mecha":9638,"meak":9639,"miha":9640,"bra7":9641,"braaa":9642,"braby":9643,"5ana":9644,"moste":9645,"monaf":9646,"3ij":9647,"baro":9648,"beul":9649,"bera7":9650,"bejbouj":9651,"voix":9652,"jibour":9653,"belf":9654,"thara":9655,"thawadi":9656,"melou":9657,"rabkom":9658,"todh":9659,"7ich":9660,"7i7a":9661,"dhrou":9662,"dhoh":9663,"irya7i":9664,"pac":9665,"mino":9666,"gale":9667,"ga3ed":9668,"gadhefi":9669,"chira":9670,"mardi":9671,"marque":9672,"quant":9673,"leklab":9674,"wiw":9675,"malhet":9676,"jeux":9677,"gerar":9678,"ma3end":9679,"ma3louma":9680,"resse":9681,"terikh":9682,"a7deth":9683,"tekna":9684,"fille":9685,"hej":9686,"hezeb":9687,"tawna":9688,"iiiiiiiiiiiiii":9689,"berjouleya":9690,"baraw":9691,"kebir":9692,"wlayed":9693,"3oudh":9694,"a3lem":9695,"a3mlo":9696,"yokhrej":9697,"sayidi":9698,"blahi":9699,"blayes":9700,"ta7en":9701,"hamra":9702,"yessa":9703,"alifriki":9704,"doh":9705,"dossi":9706,"cial":9707,"na3rif":9708,"na3rf":9709,"hebouch":9710,"9o3dou":9711,"lethom":9712,"tnajm":9713,"conse":9714,"confir":9715,"contenu":9716,"la3sa":9717,"zey":9718,"tetbadel":9719,"tta9":9720,"sof":9721,"sora9":9722,"chofou":9723,"ash":9724,"hadedi":9725,"ya7kou":9726,"ya7ra9":9727,"taht":9728,"presiden":9729,"serek":9730,"yedou":9731,"yahbet":9732,"ab3ath":9733,"7obi":9734,"selouma":9735,"dinou":9736,"makchouf":9737,"alahou":9738,"staf":9739,"karwi":9740,"kartouch":9741,"jebnich":9742,"5aterhom":9743,"darkom":9744,"mnawra":9745,"ta7ane":9746,"jibt":9747,"mortha":9748,"ppp":9749,"zebou":9750,"yeziou":9751,"yezikom":9752,"yeziwna":9753,"yal3ib":9754,"sahah":9755,"tasjil":9756,"yrine":9757,"ayamet":9758,"charf":9759,"afdha7":9760,"inta5":9761,"yaatek":9762,"baaed":9763,"siyasiya":9764,"7asb":9765,"tttttt":9766,"perdu":9767,"mosfara":9768,"borjouleya":9769,"woujoud":9770,"999":9771,"jayin":9772,"eeeel":9773,"pleure":9774,"y5af":9775,"dawedi":9776,"2014":9777,"to9tol":9778,"wehna":9779,"yonsrik":9780,"nabrou":9781,"nab9aw":9782,"jard":9783,"las3ad":9784,"madrid":9785,"seket":9786,"wlidi":9787,"wanssa":9788,"tounseya":9789,"mimti":9790,"yahkiw":9791,"fal7in":9792,"o9sem":9793,"source":9794,"yarhemha":9795,"hahahha":9796,"n9ollek":9797,"b3athkom":9798,"yachfiha":9799,"interview":9800,"story":9801,"3achet":9802,"b3adhhom":9803,"tenant":9804,"mmmmmmmmmmmmmmmmmmmmmmmmmmmmmmmm":9805,"ticket":9806,"ylz":9807,"venu":9808,"yejbed":9809,"nemchiw":9810,"nal9aw":9811,"bombe":9812,"iwaf9ik":9813,"chkun":9814,"ybareklek":9815,"tmathel":9816,"abdelli":9817,"m3aleem":9818,"sa9ih":9819,"9adekch":9820,"mrakba":9821,"rjalha":9822,"syessa":9823,"raouf":9824,"chba3na":9825,"mathlouthi":9826,"tbandir":9827,"asifouah":9828,"t3ebna":9829,"sbitar":9830,"swissi":9831,"avoca":9832,"paparazzi":9833,"mawthou3":9834,"m3athabhom":9835,"gerard":9836,"1er":9837,"2000":9838,"300":9839,"3fat":9840,"48":9841,"7ja":9842,"7key":9843,"ahi":9844,"anes":9845,"a5ra":9846,"awra":9847,"a3liha":9848,"action":9849,"agre":9850,"bber":9851,"dmo":9852,"dyar":9853,"flu":9854,"jbel":9855,"kmou":9856,"kena":9857,"ksar":9858,"kdheb":9859,"l5a":9860,"lbo":9861,"lgh":9862,"l7al":9863,"mw":9864,"msi":9865,"n3awed":9866,"oth":9867,"owel":9868,"ople":9869,"pra":9870,"pid":9871,"pline":9872,"roo":9873,"rtou":9874,"r5is":9875,"rwahkom":9876,"sma":9877,"smi":9878,"tsi":9879,"tman":9880,"t3ay":9881,"t3ab":9882,"tsam":9883,"t5alli":9884,"tsayer":9885,"t3ichou":9886,"tkalmou":9887,"unis":9888,"val":9889,"wme":9890,"wnes":9891,"wyet":9892,"wchouf":9893,"wmazel":9894,"yjou":9895,"y3ar":9896,"y9ad":9897,"yrod":9898,"yraj3ou":9899,"ydhaher":9900,"zyed":9901,"œur":9902,"matas":9903,"lasse":9904,"lafet":9905,"elkha":9906,"elhak":9907,"elghalya":9908,"ch9":9909,"chee":9910,"chine":9911,"chbeb":9912,"chwia":9913,"lihoud":9914,"naou":9915,"naja":9916,"nabar":9917,"nase":9918,"nage":9919,"yaya":9920,"ta8":9921,"tau":9922,"taya":9923,"tada":9924,"tana3":9925,"talab":9926,"taoua":9927,"taaml":9928,"3amin":9929,"leka":9930,"lem3allem":9931,"enfi":9932,"enik":9933,"bideya":9934,"wajdi":9935,"wafe9":9936,"ettou":9937,"bati":9938,"badal":9939,"inha":9940,"in7eb":9941,"sa2":9942,"sare":9943,"sabou":9944,"same7":9945,"espo":9946,"ekch":9947,"iil":9948,"chadi":9949,"tiste":9950,"kalim":9951,"edou":9952,"edar":9953,"7ati":9954,"7aye":9955,"7assilou":9956,"siwa":9957,"echo":9958,"fahom":9959,"faite":9960,"jaou":9961,"jam3a":9962,"kiff":9963,"lou4a":9964,"dant":9965,"nif":9966,"nitsa":9967,"mousi":9968,"tera":9969,"9awa":9970,"9ada":9971,"kolle":9972,"kol3am":9973,"yeet":9974,"houk":9975,"koulha":9976,"cata":9977,"mitha":9978,"deta":9979,"demande":9980,"5ayel":9981,"neheb":9982,"ne5dem":9983,"moro":9984,"berabi":9985,"beras":9986,"be7na":9987,"be3d":9988,"berassmi":9989,"lemhaf":9990,"isou":9991,"ista":9992,"zabou":9993,"ji3a":9994,"belhak":9995,"thra":9996,"thabli":9997,"wellah":9998,"weldou":9999},"merges":["o u","h a","m a","r a","l a","e l","c h","h h","l i","n a","y a","t a","3 a","l e","e n","b i","w a","f i","a a","e t","b a","i n","s a","o m","e s","e r","e k","i i","c ha","hh hh","t i","h i","k a","e d","o o","7 a","e m","s i","r i","e ch","f a","e b","j a","k i","l ou","la h","o n","d i","d a","n i","t ou","a l","ra bi","o l","li m","m 3a","s lim","i l","r e","m ou","t e","aa aa","9 a","h om","b ou","r ou","k ol","y e","h ou","s s","k ou","k om","c a","m e","m i","d e","b ra","5 a","ii ii","n e","m o","m en","3 i","ba r","hhhh hhhh","b e","le m","w e","i s","z a","o r","v o","oo oo","j i","b el","t h","e e","n es","li k","u u","t ha","k en","d ha","b ech","m el","f f","w el","z i","l lah","3 la","ra b","t o","bra vo","ta 3","7 i","r o","0 0","d h","i r","p a","m3a k","d ou","m in","l l","el i","al lah","g a","ch i","k h","l u","j ou","k k","l o","s lou","aaaa aaaa","ma r","f ou","f e","r r","a n","en t","ja m","k ha","q u","a ma","t u","3a n","3 li","ra j","slou ma","le k","en ti","w i","a k","ma l","le d","3 b","y ou","h o","kou n","y et","m m","j e","cha llah","s e","h ed","c lu","9 ou","9 i","ya 3","g e","ma 3","r es","n ou","7 eb","3a m","ch ou","t er","3a la","d em","a 7","rab bi","i d","ya r","u r","l h","a h","ki f","fi h","e na","ma b","s ou","t ek","fi l","ri a","le s","ha ha","ta wa","h e","ma n","l la","bar cha","tou nes","ta w","v e","z ou","iiii iiii","i t","jam 3i","clu b","f ri","in e","ma t","f el","b o","g ha","mab rou","b er","n n","c e","n o","s sa","ba ra","mou ch","el li","le b","di ma","ni s","f lou","b en","k e","t t","ta r","m et","d ek","hh h","w la","v i","b on","wa 7","5 ir","w in","ch e","cha y","mabrou k","a na","fa r","3a l","a r","m er","3 ou","a 3","uu uu","l el","h em","ka n","y o","a la","sa y","ma la","ria hi","b la","wa la","m il","ta 7","ha m","y es","oooo oooo","a li","d o","s t","hi r","c i","m ta3","3 lik","na 3","y y","n et","h eb","ba 3","w en","o k","a u","b rabi","n cha","b et","ch koun","9 o","ee ee","i li","y ek","le t","raj el","in ti","g h","ff ff","cha 3b","k o","ma s","t ra","m ech","t na","9 al","p res","b led","7 ou","hhhhhhhh hhhhhhhh","l kol","h et","es t","fi k","p e","3a d","flou s","c on","la 3","ma y","qu e","z e","ra k","t et","ha l","ba l","3 le","ra n","m on","z em","t ta","ki ma","a m","b b","es s","z z","ha r","aaaaaaaa aaaaaaaa","i k","m3a lem","s si","ma h","wa l","wa li","ja 3","wa 9","re f","la 7","t r","bi r","j em","ta l","s o","m n","t hi","h ek","ha w","ch o","n challah","a s","ta n","li l","te 3","ha d","kk kk","wa h","ya 7","a7 na","hhhh h","bi l","y i","t el","ou r","ta h","pres id","ka l","ti on","5 dem","sa n","di k","rr rr","j el","ha ka","s er","m ek","hou r","ma is","k el","y ed","7a ja","presid ent","chou f","ti k","fa ma","w lh","ya h","in challah","n ek","a b","k la","ha k","3a r","fi ha","pa r","7 o","b es","3 e","jam3i ya","u n","t ech","ma 7","ra m","na h","bi k","ho wa","re j","5 i","s el","m es","00 00","d in","r et","5a li","3b ed","7a 9","bra v","z el","ma k","a lah","7a ta","s ta","c om","n si","w w","a i","p o","t re","ra h","d es","9ou l","ll ll","8 8","ka r","k hir","o i","3 eb","5 al","b le","mm mm","j eb","m 3","g u","s h","mo ch","m3a l","ch wa","ii i","wa llah","il li","ni k","3li na","ra i","9a d","y el","fri 9i","k lem","c ou","r ek","ra w","men t","tu nis","a y","s en","hhhh hh","m ed","zi d","f or","t in","k in","s ba","sa r","tou nis","w er","m te3","v a","hou m","3 in","m r","5a ter","k on","en ta","da wla","m lou","in cha","h el","n s","ch ed","bi en","mar zou","e j","jam3i a","5 er","7a d","ni si","hou ma","la m","e z","5 ou","ra na","e ur","ma a","i a","ma ra","3li h","w il","wa lla","bi h","mer ci","ra s","b ek","da r","aa a","ta ra","f o","hed ha","d hi","7 ek","l ha","m na","li a","kou m","ta 7a","m ch","e f","n 7eb","w et","bar ra","y eb","y ech","j om","le h","bi n","p our","y na","3 ed","d d","wa r","fe h","yar 7","s eb","b na","le hi","9 ol","tu nisi","kou l","j et","ha ta","ed a","1 00","pa s","5 ra","3an d","y en","sa ra","3i d","ha ja","hou wa","p ro","ta b","m l","ki l","ma 3a","a ch","s te","n in","ji b","ra 2","t es","w led","ma na","k et","bon ne","nes s","y er","i m","iiiiiiii iiiiiiii","3 mal","j o","sa mi","ra f","3a w","wa lah","we 7","i la","y em","i re","j di","ya ra","2 0","oo o","sa l","f er","t wa","mal la","hi ya","t 7eb","ye h","a le","qu i","ma w","ou s","ba d","m3al lem","7 7","t fa","tou nsi","l k","w enti","h m","ma ak","th er","l na","s 7i","g o","sa 7a","f r","sa h","n har","ha b","i na","n ch","h er","v rai","ba ch","7a m","li ya","ncha lah","mo r","ra hou","er i","b r","li n","s ur","t em","ah na","hhhh hhh","p p","ou i","f hem","b ch","di t","la hi","tr on","9 bal","b bi","3a y","hi m","p i","n t","pa tron","d on","uuuu uuuu","h mou","t 7","z eb","ra is","vi ve","nn nn","hed hi","3 3","s u","t en","ti r","3a b","7a l","sa 7","3 o","m s","fe ha","e y","w ra","wel d","ba3 d","ye zi","clu bi","p r","ya l","b y","chwa ya","da 5","fi n","si r","jom hour","3 ma","tara ji","v ous","y wa","da m","d er","ta k","na s","haha haha","a fri","ma cha","de ga","ma zel","we la","say eb","e hi","t fou","3 om","r jel","ha y","b eb","li na","k em","f ran","g ou","cha 3eb","lo t","kou ra","t eb","w l","be hi","you m","ti t","sa ha","na f","d en","di na","tou ma","ha n","3an dou","e h","ed i","th eb","ra 9","7a tta","s on","ra hi","7 na","za r","bou r","u l","ha da","l m","a 9","ma ch","lik e","ss ss","a t","th e","k er","ta s","a d","fa ra","y ji","bi a","marzou ki","aaaaaaaaaaaaaaaa aaaaaaaaaaaaaaaa","ss e","ta3 mel","wa7 ed","k bi","n or","b 3a","ke ya","j u","ta7 ki","s7i 7","m3a na","ai me","on s","3i b","jou eur","het ha","u t","y 7eb","v er","ra ge","bi ya","en cha","p u","y fa","3le ch","be h","ffff ffff","f et","wel i","li b","p lu","ra t","pa ge","k bir","g i","el kol","sa m","d u","ze bi","5 ed","7 ba","y r","y ka","n em","bou k","kif ech","a ya","a ve","w o","eeee eeee","100 0","cha r","l y","n heb","ek a","ba h","fi na","ak ber","chou fou","z eda","bar ka","a ka","t 3a","er e","n sa","a f","ba 7","dega ge","re 9","r eb","ha dha","me la","in ta","bra bbi","fri ki","t sa","t la3","ya a","hi a","f ech","afri ca","ta a","ka m","m ma","a lik","r ya","u x","bi t","mi k","t ji","fi hom","tunisi e","oooooooo oooooooo","t y","c o","g al","b aa","e ma","an t","a7 la","ri t","u ne","ma j","ak ther","plu s","i b","z in","na 9","ri ya","kou ma","ra2 is","e 7","s v","p or","la zem","7a b","88 88","s in","a min","d ja","ma hou","leb led","r fou","t ka","fi 9","bel lehi","y sa","ha na","li h","bo ss","b l","m em","bi ha","da n","mou t","we j","bel ehi","kkkk kkkk","ave c","ja w","3a k","en i","ye 7","ss em","vrai ment","e 3","ta 9","ri k","9a 3","sv p","m u","ra y","tou r","t koun","bi na","ga r","ja h","t res","la k","di m","ya3 mel","3an di","si ya","1 0","wa9 t","ra ni","m3a h","jou r","a 5","cha n","jam 3","b li","f l","m ka","ed h","k hou","di s","7a s","te 7","ye z","don c","tou t","tou la","rrrr rrrr","rou 7ek","b u","3 et","africa in","e la","ma ni","ch no","jdi d","a wel","m ha","ba n","el le","t f","fi kom","9a lou","3li kom","kbi ra","l 3a","r in","le r","jam 3e","bb bb","si d","ri b","l 9a","n ech","kol na","u p","3an dek","ha tha","ya b","te h","i h","het hi","le fri9i","ja l","d et","m sa","me j","s em","ne ya","d hou","y ma","m t","s ti","bou b","kla y","fa 9","ni ya","cou rage","f la","g er","i ch","li t","t ro","ent y","ya3 ti","nah dha","s nin","3i ch","t on","ja b","bou n","ba3 ed","3 el","f ek","tt tt","3a di","mar bou","je y","e 5dem","3li hom","kal b","g hir","le zem","ye 5i","jou m","f 9","ta ri","fa ch","ni a","llll llll","s hi","je h","5 o","9ou lou","8 a","te f","j bou","y h","ki r","yel zem","j en","p er","mo s","far 5","hhhhhhhhhhhhhhhh hhhhhhhhhhhhhhhh","7i t","m ra","t s","om ek","an s","a tta","bla d","7a y","to i","dh eb","k hi","al f","7i b","kin g","la 3bed","ba t","he z","zou z","0000 0000","c li","ma 3ad","la b","3a sba","b or","ll h","b ro","zz zz","b n","i f","m chi","n on","ncha lla","5ed ma","s ha","t 9oul","o 5ra","ra 7","bou toula","w ou","na k","kha l","kha li","tin u","ch em","re c","con tinu","ale x","t v","ta na","ras mi","a w","i da","y k","ra p","si on","vi de","jam3e ya","g g","be 7","for za","we7 ed","o 5","3a da","chi boub","nch lh","9 9","d el","t k","e qui","bou h","bou na","an d","ba ba","wala hi","hek a","brav oooo","mmmm mmmm","lot fi","a9 wa","vide o","p la","bi g","fa mma","ss ou","incha lah","chno wa","na r","ha s","ta7a na","en d","ka mel","ya3 tik","5 d","ma ge","ce f","ncha la","e x","e ta","zi na","rab y","lo ve","ya7 ki","fou r","k or","na yek","cha 3","g ran","la w","b ed","le n","s ed","2 a","ja y","mat ch","ta 5","y t","ma z","ja mi","aaaa aa","kol l","b 1","y koun","sa d","me h","mon cef","jam3 ya","d eb","ye 7i","tfou h","m ri","t 5a","r u","ma sa","rou 7","3 l","k leb","l club","o f","wen sa","ha t","s et","3a 9","9a t","9a 7ba","ww ww","nor mal","cli p","b sara","h ba","le ha","win ti","ta7a n","ye f","hhhhhhhh h","to p","yo s","g ra","m la","kif ek","hak ka","ma ri","3a na","wa ta","a v","7a r","tou s","ne ha","ee e","d r","ra ja3","yar7 mou","la bes","kha ter","ak bar","y 7","le 7","en e","en na","wa k","me z","haha ha","yy yy","joum hour","t or","ba s","ne 9","s or","ha ni","ta yara","in g","ca r","a tion","y s","z ok","o na","p le","t ch","ya n","ti f","be au","yar hmou","a id","e u","f es","ki na","h or","ta3 ref","raj il","y 5a","ha di","ja n","h on","ta la","di r","gha l","fe 9","gu i","jou er","a7 sen","equi pe","y n","ch nou","7i d","flou ss","bi 3","et te","da w","wa7 dek","po li","b ha","y ya","3le h","kon t","na 7","hhhhhhhh hh","ah la","7 ram","k rou","cha 5","rou hek","tha r","san fara","7 ka","i ji","ya t","en challah","5a y","c k","sa b","7a la","th el","e cha3b","i fa","p ri","t wali","kol ha","mi ch","a3 mel","cho f","y 3a","z o","ye 5dem","mar ra","20 1","t hou","y in","te ur","n7eb ou","c t","j r","o kh","ma 5","ta t","si a","9a net","wel la","mon ta","had hi","5al li","a ni","n d","ya k","tah ki","m te","mi boun","za 3ma","to 9","3li ha","fil m","s li","na j","ta f","le z","bar na","bar nem","c c","ra hom","ya s","ma f","tou na","3an dha","3am lou","v u","ma 9","3a li","we h","ji t","mil li","5ou ya","t rou","e 9","e ya","tha wra","gran d","ii r","d 5","h dem","r jou","wa hed","den ya","e cha","h ech","i 7","k n","t hom","ha tta","me zel","chan ce","w es","dh er","a do","c pr","i ss","y hi","le f","gha r","fa mech","he ya","m3 ek","a kh","g hi","h y","na t","fa 3","bravo bravo","c u","ra r","clubi ste","continu ation","la t","dja bou","t 7a","ta y","bi hom","yem chi","k le","sa ber","da k","bel le","wa7 na","y 3","y ons","na b","5a bet","t ni","ch y","mi s","yar 7am","hm d","ha thi","be ha","walla hi","d wa","n er","ch bik","ka f","ki d","bel i","9ad ech","mahou ch","hi ch","uu u","a z","in t","dha r","j aa","wa kil","rou 7ou","wal li","sa w","me na","b k","e 5er","s l","t la","le 5er","sa 3","hou a","n 7","s na","be ji","ff f","dou k","f u","w rabi","y it","le ch","en s","es sa","ss er","che y","yes er","d ech","h ya","ch ek","qu oi","77 77","el ha","ti tre","ki feh","kk k","nou s","j me","m ta","hi d","fa d","mi na","sa7 bi","h ra","ti que","bel na","w n","si l","to fla","hed i","w ed","bel lahi","yez zi","7 k","lou l","00 0","ben zar","la n","9 et","a j","m cha","ma ta","ra ho","3a lem","feh ri","alex is","y heb","fa rej","tou ch","i wa","y da","wa7 da","g oo","n h","ka t","fa h","ja r","lou ch","de ja","9o d","dis like","in i","ka ri","9a r","wa9 tech","ma3ad ech","w ech","li fri9i","ba b","za n","atta qu","nou n","marbou 7a","ado re","i 3","l youm","bi ch","mou r","hom ch","3i dek","dha l","com me","na 7na","hhhhhhhh hhh","con tre","aaaaaaaaaaaaaaaaaaaaaaaaaaaaaaaa aaaaaaaaaaaaaaaaaaaaaaaaaaaaaaaa","7 et","7 mou","b 5ir","k ra","al g","bar ek","yes ser","par c","33 33","clubi sti","t wensa","ch ok","en touma","mou na","res pe","ke yet","encha lah","f ed","j j","j m","ha ya","la d","hi b","ri 9","ja 7","yar7 em","7 keya","ch n","ch er","om ha","m3a lim","mo sta","s lo","ma da","en nes","wa lh","men ta","wel di","3 ba","9 ra","te 5dem","aaaa a","ze yed","d ine","e 5","cha m","si di","9a w","a 3la","s aa","ca b","kh o","no tre","say bou","g na","i 5","ra ss","il le","iiii i","we hed","a3 ti","cho mage","8 ir","d ed","f dha","t w","em e","ss el","nou r","yar ham","jdi da","na bara","sa la","fa it","tou l","iiii ii","zi m","mem e","f9 ek","b rou","n ta","o s","la a","3a t","ni ch","rabi i","tha b","mer i","l 3","za yed","ama n","amin e","i 7eb","j er","t 3","za wali","mel la","an ni","mn in","f oo","ha z","en ce","ye 3","mi li","c la","d ra","w ma","ra ba","ra ji","ri f","ya3 mlou","w eb","la 9","men ha","ji bou","shi h","8 al","k ee","ta ch","wa sel","fa w","7i k","jou lia","no s","nnnn nnnn","ti ch","ki t","wel li","brav oo","goo d","c tion","n ha","p s","ba ssem","ye na","ro d","ham ed","4 a","l oo","l ol","y on","be lahi","za h","3e z","jouer et","o ma","z er","la s","ss en","par ti","7 ez","r ye7i","ra d","em ent","al la","9a 3ed","kel ma","s ma3","3a s","mel i","tounes s","s ol","t barka","ma th","ch eb","ta m","bi kom","lou ma","bou l","kh er","yo 5","enta 5","marzou 9i","sah bi","3 en","a wled","j ed","k ed","ma ya","et ha","cha ine","oo n","7a k","hhhhhhhh hhhh","7o t","yech fih","8 ali","f y","g la","z ed","ma d","li friki","wa 3","kam cha","a th","s ek","sa lem","m3a kom","ne w","t7 in","m y","m le","et e","et ou","bou ch","rou h","fran ca","attaqu ant","r we7","ma challah","tem chi","ou l","na tir","ja i","mi t","men ek","sa id","om ou","ma3 neha","khou ya","bsara 7a","7 or","c ss","ra a","ra kom","le club","wa 7id","you n","tna jem","san four","3 mor","l hom","fa t","ria 7i","w na","fa n","hon te","l b","l ma","n choufou","t chouf","u m","w li","en se","in s","gha lia","win ou","kee p","o h","fa re","yo 9","tra va","tal 9a","8888 8888","i j","wa t","fa k","jou liya","ya3 ref","ve au","kla m","cou p","iiiiiiiiiiiiiiii iiiiiiiiiiiiiiii","ta7 ya","l mou","la z","le e","tou ns","bra s","bel ek","ma7 lek","5 5","a kid","di d","9a b","kou ki","9i 9a","brav ooo","dd dd","f em","i ta","i ja","m wa","hhhhhhhh hhhhhh","za bour","oooo oo","wah ra","i sa","p et","s be7","v v","y d","ya 5","em 3ak","5a r","za b","i ka","t ri","t jib","da 9","de f","rr r","an ta","raj 3ou","bad el","3 0","el na","na w","ri na","tou h","benzar ti","alg eri","b jeh","r f","t li","y bi","le 9","et na","ham dou","i ya","p l","w le","y ch","le ment","ba hi","m3a hom","men hom","dh e","min e","ju st","3 d","z bou","lou led","ni kom","mar you","3mal tou","ju ste","na a","7a t","da kh","ne f","na3 ref","yek hi","poli tique","ha la","ha ch","ne h","gha li","trava il","m lo","ch kon","3a mel","fi r","fi ci","ni t","ye hi","oooo o","ro j","tar ja3","far jou","ali h","respe ct","ha a","sa i","hi t","fa dh","il la","vi e","win i","incha lla","uuuuuuuu uuuuuuuu","tro p","ma hich","ent ra","st y","mor ta","b t","h ka","ch niya","aa l","da y","ne e","mah lek","so b","chnou wa","foo t","9 ef","w y","wa n","et h","om mek","ii k","hi k","mo 5","za weli","ko lou","j ri","n chouf","ou h","ya 5i","er jel","dha her","ta3 mlou","kh ed","ho ma","wla d","com menta","incha la","joueur s","slo ma","ma x","le ya","hi war","bou ha","sta de","hi l","tou n","ssa r","mech i","tab 9a","gou l","beh ya","n eb","u s","ha bi","si f","mi m","3le ha","sur tout","rya 7i","g ol","l ka","ma dem","ali na","jem la","ssss ssss","mani ch","3 ek","b hom","g re","y ched","el e","aa la","si gna","ja mais","men ou","or s","am ma","yah ki","barna mej","5 0","9 wi","b ya","h wa","ch nia","ka b","7a n","tou ha","chi d","ah sen","mil le","na3 rfou","brav oooooooo","da5 el","pu bli","9 bel","c or","d om","y ik","ha 9","en es","om k","hhhhhhhh hhhhh","9i t","a3 lik","su is","li kom","ka ra","maw jou","h d","l t","n 9o","t cha","w ya","y cha","ou m","ti 7","9o dem","ble ch","lib ya","i dha","j mou","m li","s r","w ek","ma g","ma chi","3a wen","ka is","mo hamed","dh o","say er","wali t","3and hom","7 el","j oon","s n","li bled","ba ya","ti h","mou tou","mm m","ou k","ha h","3a lik","sa is","kol hom","me ta","bla s","ham di","wah dek","5 in","5 sara","j 3ou","y ba","ma tha","zi dou","na3 mou","of fici","h na","l kom","ou n","el mou","sa f","om kom","fa ha","re u","de h","3i ya","we na","dan douk","cham pi","a ss","b khir","s om","ou ch","7a ch","9a noun","ye 5","to s","an ti","tel e","7 keyet","s fa","t n","t 3ich","na jem","ii t","fa l","vi va","s7i 7a","jour s","bbbb bbbb","b net","f lo","i ra","o 9","t 9a","cha beb","on e","m3a ak","ye sa","mi r","be ya","hed a","tem ent","han d","zbou bna","h k","l mo","n ka","ma fi","ma ss","ra chwa","le flous","ba y","7a jet","ne 7","th o","ga ti","sou r","lla hi","ke f","wah da","rya hi","rec ru","b ni","r en","s lem","ma i","ma ta3","cha d","kol kom","na3 mlou","wen ta","bled na","twa nsa","b3a dh","mu si","el l","ch bih","ka ch","fa ire","da yma","rou hou","me 3","bel 7a9","to 5","ent om","ma3 na","ine ur","say ed","yeh di","jab ri","7 in","g ed","r om","ou la","ma famech","na 7i","3a z","3a yel","fi la","fi 9ou","di a","de g","ro k","je ya","maa lem","3aw nou","ywa f9ek","ida ra","d na","w jou","y kha","ra ii","na ti","sa ye","ri ba","rou f","an ce","yet raba","yar hem","bil lehi","c es","e sa","m k","n 9oul","ba li","cha h","si yes","ri 3","al l","al ors","te fhem","hom me","ll l","fou 9","na3 ma","3mal t","1 9","a tt","e rajel","i koun","m d","cha ab","7a j","re au","mi a","yet na","wal dik","mes sa","mes kina","b ent","h ram","m la3","n dou","s es","y ha","ra sou","3a j","ri j","kou lou","be rasmi","ji m","je 7","3aw ed","barnem ej","a bon","j or","k oo","m 3ou","ma ssa","et oi","ka lem","ni veau","3in ek","llllllll llllllll","3 mel","9 rib","p on","na ya","ti l","ki w","da ra","rou 3","ya3 ni","pe au","fr om","nor ma","aid ek","sty le","f eli","g el","r bi","s y","t ched","w em","sa re9","tha ma","7i 7","wi ssem","mak ech","tounsi a","etoi le","c ette","r y","w t","w is","ha j","ya rah","ba k","ki fou","mo i","be 3","haha h","wah na","wil d","pro jet","entra ineur","9 3ad","a bonne","ma nou","ra ch","ra des","na ss","3a le","en sen","wa di","er rajel","fa ut","ki ch","5a tr","yar ja3","3ou d","au ssi","por te","bu reau","jai me","sfa x","l fa","ma ms","za 7","kh ra","lo wa","yy y","mte3 ek","tari 5","5d mou","i te","p ffffffff","la ha","li la","wa dh","fi da","ti ra","ka d","3i k","dha 7","3an do","lla m","flous ek","wa9 tha","aka haw","kkkkkkkk kkkkkkkk","kari m","3 dou","5 r","l bled","w rak","ma m","ta li","da ns","ni dhal","3am la","3ou n","con tra","yel z","cou pe","ma3a k","3o d","ver sa","signa ler","i cha","n 9ol","p ffff","el la","ya 9","ki la","ya3 tek","mas la7","7ou kouma","m3al m","mna yek","per son","kor si","9 lou","b he","g ho","i x","l ba","wa let","sa k","de ma","ir es","ma3 k","bo y","po int","tunisi en","fran ce","y7eb ou","has bouna","kaf on","f t","s eli","w ha","y wali","y 9oul","ka leb","de 5","gh neya","mas ta","moch kla","zeb y","b3a th","3 raf","b him","l 7a9","na wa","ta ha","sa 5","sa wer","om o","si eur","de yma","vo te","yar h","no 9","ar ri","9al bi","ms g","maz al","a 9al","c v","c er","c ri","g hou","i tha","s por","t ol","z et","ch kou","tou ni","la7 keya","tan t","naf s","jami 3","zan tour","b da","i heb","y ta","ma mi","li ha","si b","hou lek","ent re","wa9 et","ble di","pi vo","zeb bi","f ok","n di","aa k","ri d","ki m","te 9","ye fhem","mas ha","yara t","jbou j","wata ni","f sa","f rou","h la","s raf","t rab","ra di","la f","ya ch","ya 7i","ta 7i","en ou","cha lah","ti a","fa dina","da b","bou la","ss s","5a lik","ta3 mil","tech ri","9ol t","sami r","jen joon","7 kom","w ir","ma fama","ta ja","ta tion","wa j","in ter","rou s","hou ch","tha n","to z","ko ra","zzzz zzzz","gg gg","recru tement","7 ok","g et","es h","ri en","lou m","da fi","ss ed","de fi","3i a","ama na","he zou","st es","tah ya","mka ch","av ant","beau coup","7 yet","9 el","k bal","m zi","m taa","t l","t ba","le ur","ba la","ba you","da 3","m3a ha","za da","fe hom","pp y","naf ti","rrrrrrrr rrrrrrrr","00000000 00000000","fare 5","khed ma","5 id","b 3id","e c","h u","i e","n el","ma kh","le na","en fin","in na","on t","5a s","do c","st or","nah da","3and na","yara 7mou","maryou l","g rou","g ram","l 9","ha dh","ya d","si m","ni ce","iiii iii","3i chou","za natir","th ez","pa ra","ak thar","iiiiiiii ii","ncha lh","chwa y","3ay ch","9a3 da","yab 9a","mchi t","2 00","e ra","g ent","k m","ha ppy","fa mille","mou s","dha w","min hom","ra2 iss","3ay la","ywa f","marbou ha","okh ra","a ta","i m3ak","j ma3","k ek","r wa7","t nek","la y","la 7a","li ne","na dh","sa lam","cha b","ka s","si k","m3a lam","ca po","zi z","ta3 ti","ro 7ek","yi a","bes h","gu e","tin i","sa7a 7","3om rou","a di","a re","g es","n r","t ii","ha f","ya aa","wa ch","wa na","ii d","oo k","de ath","3la ch","ro le","lek lem","thi 9a","ret our","pp pp","mari em","n ji","z ga","li hom","le kom","te 5","mi ss","bar k","wel dik","wi la","res ul","leb es","mas 2","san s","jeb ni","3om ri","9a3 din","fek ra","chok ran","offici el","b re","d z","d mou","h r","k rah","n u","hh om","ya re","3a ch","en ya","bi llahi","sa lah","em i","ri ma","tou jours","hhhhhhhh hhhhhhh","ji ch","qu el","you tu","ho t","mon sieur","tttt tttt","meh ri","sais on","b 7ou","t nik","t 7ib","ta hana","hi hi","si t","nes ta","no te","ar bi","bla sa","mes kin","3in i","mach rou3","pu b","yons rek","d aa","e w","e jam3iya","i 9","p ou","t walli","bi ra","9a s","rou 7ik","ss eb","mel li","min ha","qu es","ar d","ab ed","yna jem","dina r","eeeeeeee eeeeeeee","mos tawa","k es","l 7a","t fi","7a na","il kol","re a","ye e","be 9i","an na","tu re","wi j","che f","lkol na","nah na","dhi f","fr ere","encha la","ya3ti kom","9od ret","anni versa","messa ge","a 5er","b 3","d ro","l 7","l ya","m om","n ti","t om","t lou","u i","li ch","cha peau","7a bi","al lh","ol o","vo ir","dh el","dh ek","dou h","ama l","taw fi9","a3 mlou","tra bel","ness ma","macha ri3","3 bou","b lo","f tha","n mout","n enta5","r j","t zid","ch el","ch neya","ta hiya","ba ki","ek el","ka ya","ri s","m3a dheb","mi ya","ga d","yah f","3and kom","jo b","yezi na","algeri e","1 1","i 3a","i di","i kh","k eb","y om","y kou","el 3a","li te","sa 9","cha l","ka haw","re z","te j","5a yeb","mo ins","th em","3an na","tan bir","ad min","sem i","3 er","3 em","b z","r ine","s k","na n","wa w","on eya","da h","al ger","9al b","wali d","kem la","3 ta","b ess","l ga","o ff","p ho","s ne","t kha","wa tan","sa ba","cha i","cha la","si dek","il s","aaaa aaa","5a rej","ken et","se f","sou b","taw wa","con fi","m3 lem","pu is","aaaaaaaaaaaaaaaaaaaaaaaaaaaaaaaaaaaaaaaaaaaaaaaaaaaaaaaaaaaaaaaa aaaaaaaaaaaaaaaaaaaaaaaaaaaaaaaaaaaaaaaaaaaaaaaaaaaaaaaaaaaaaaaa","commenta ire","a mena","b lh","c ro","f b","k aa","m che","r jal","y 7a","ma dha","ma fhem","ra ha","aa m","ka w","7a ya","ni 3ma","me 7","mo k","mo t","is sion","rab by","tu r","je u","ya3 rfou","ham za","yi ch","mt 3","masa 5","bas ket","1 5","e cha3eb","f fa","n ul","t bi","ch meta","wa hid","et t","ba z","in touma","hi h","de z","to la","9i k","ya3 mil","sou t","mta3 ek","rai ss","bravoooo o","mez yena","raji 3oun","a mi","b h","b 3ad","t 9ou","ta ni","sa if","da l","9a hba","3i t","mar tou","ma3 9oul","3ala m","klem ek","7al 9a","bsara ha","youtu be","a taw","f re","g ir","h b","j b","n dha","r c","ma ha","ra g","el f","ta han","bi s","sa la7","om hom","vo tre","to k","nou b","man el","ve ut","leb lad","thi b","nah tha","macha kel","mte 3ou","b 1000","q a","s lm","y far","y kin","z wa","3a ss","bi dou","ii ir","ca s","mo na","mo is","zi r","ga lou","kha wla","ena h","ber rasmi","kan et","jem 3a","kla b","5ali na","med ia","t7eb ou","3mor ha","pivo t","anniversa ire","7 e","i ma","l 3ar","p re","r ja3","z en","em chi","fa s","ja na","re bi","kol o","nes ma","dou ba","fe hem","tel ha","tfa rej","jbou ra","1 4","5 raj","e jam3ia","t oo","y ra","z aa","ma dh","ma 3andou","ch tar","li s","ya ser","3a ma","le 3","wa s","et o","sa lim","lou na","te na","ne 3ma","be la","dou r","wi li","flou sou","tt t","inti 5abet","ssi r","tel na","for t","seb si","3om ra","d hh","y 9a","y jib","ha th","ra you","3a mi","sa fi","ek om","cha 7","rou k","de w","5a b","lu i","an dek","3an dik","ah med","zou za","wa7 d","yah di","brav oooooooooooooooo","hhhhhhhhhhhhhhhhhhhhhhhhhhhhhhhh hhhhhhhhhhhhhhhhhhhhhhhhhhhhhhhh","7ka yet","clubisti a","morta z","raii s","8 ar","d t","n na","t seb","y la","y id","z b","ra in","ch bi","ba jbouj","in sen","sa da9","fa c","di ch","ji belna","mal youn","se ya","par t","3e j","ma7 la","3in ik","im porte","ale ch","kem el","lot f","tbarka llah","j mal","n wa","n touma","p ense","le ss","et es","re g","mou fida","nes tana","an nee","no t","ssa n","9o li","3aw ra","fr er","pla y","ghal ta","chn wa","parti e","zga w","e friki","h en","k l","k edh","l fri9i","u k","u re","ma ro","ra yes","el ga","ri 7","ri h","al h","to t","jou wer","man ech","tar tour","ali kom","wal di","nt y","encha lla","riya hi","mka cha5","99 99","pl z","1 0000","9 dar","f ra","m 5a","s ya","y 5ali","en nahdha","di th","we 7id","ji 3an","bel leh","allah ou","ga 3","fe 3","wi ra","ho w","gha leb","vi rage","eeee e","kal ba","fo is","yeh dik","rais on","mmmmmmmm mmmmmmmm","hahaha h","ghal ya","fehri 1","1 6","9 in","b za","b 9odret","n y","ou mour","na di","ya tla3","ta ta","le hom","bi lel","ba tal","sa na","sa mara","es mou","ja ma","ja bou","ki k","di rec","ni da","zi k","3la m","an dou","raj 3","fel na","bon jour","9al o","haw ka","for sa","sba b","mri dh","rc d","3 bad","5 li","a ssa","b ut","j ma3a","m ja","r hou","s tar","v es","y f","y sir","ha ma","el y","ya f","wa ya","ri ehi","lou la","re ya","ne ji","be na","we ya","we wla","7i bou","min ou","eli k","ga fsa","aaaaaaaa aa","tu nes","ho b","wen touma","lkol ha","3ar bi","yech fi","tab 3ou","ked heb","a c","a ra","k bar","r yehi","la ma","el mo","ya na","bi d","ii it","fa za","te z","hou d","de ux","ent ren","you r","ya3 9ou","tar ed","po ssi","fran sa","yos ter","spor t","4 al","7 lowa","i fri9i","t kom","w m","y 9oulou","ma aa","ma gh","ra 3","ch la","ch ri","ch nawa","na l","fi bel","ti c","lou h","lou gha","ni na","bou zid","ak eka","mat et","bara ka","far 7a","bla set","st p","yek hdem","hak eka","mna yka","jme 3a","rwe7 kom","publi c","gho dwa","3 r","5 dim","d 5al","e p","j in","l oooo","w illi","y b","ha zi","la l","ya sser","3a yech","wa ret","on i","or t","you ss","ci tation","9o lou","bir th","com p","gu ed","tara chi","go ing","nheb ou","jaw eb","mu ch","y5a lik","travail ler","champi on","2 3","5 iir","7 es","7 lou","b jah","e fri9i","j il","n hi","n ed","r em","w ken","y l","le ybi","fi d","et re","ek h","ed ha","fa m","di ya","9a deh","je w","nou chi","hem ek","cho ix","m3al lim","ila yhi","bach ir","yal 3eb","hahahaha ha","7777 7777","7ez b","9 7ab","a pres","e ux","l oooooooo","m z","m tek","o de","t 9ol","ma li","ma 7a","el 3ar","bi i","bi lehi","fi ch","et ta","sa ma7","ti ya","em 3a","em ission","mou ne","9a let","men nek","do d","lkol l","mah ma","ser e9","kar ti","mch et","br cha","lin ti","3om rek","contra t","seli m","frou 5","9 0","a 3lina","b est","i hi","m za","n ssa","p eri","t eli","t far","t jr","w h","w kol","ou mou","ha bet","ti na","ka 3ba","ja ya","m3a llam","9a her","bel hi","wi ya","je 3","ter ba7","taw fik","ta7 chi","mte3 kom","fo 9","son t","3el na","o5 rej","gui ba","nr ml","m3adheb hom","2 el","i de","j ii","n ya","v en","z ek","ra 7a","la r","ya m","sa ker","cha k","ka dheb","ja noub","9a ra","hou ni","ss in","me y","mo 3","bar sha","bech e","to ma","kha r","sou ssa","nn n","uuuu uu","na3 mel","pres ed","ya7 f","raw 3a","yar7 mo","tunisi a","tsa wer","co re","gal o","khal li","norma lement","7 0","f om","h in","i ched","l om","t sir","y nik","la wled","el fa","bi 3a","ba tala","es mha","ek her","7a w","ki ra","kom ch","5a tir","ta3 mal","ta3 ml","fe ma","tek hdem","win hom","ar ja3","ma7 leha","med eb","kil ma","go d","yezi w","dja bo","chnou a","milli ard","kho ya","a3ti na","confi ance","a da","c ol","e 7na","t est","ma ye","na m","ta ma3","3a lina","le w","ba c","ii in","ja za","ye j","mi j","we 9","za m","koun ou","3am lin","kal mou","din ya","ras ek","3ab d","behi a","ffffffff ffffffff","siya sa","tf ol","cor ona","doc teur","entren eur","3 lah","f ol","k teb","l tawa","v is","w ch","w llh","ma dam","la 3b","aa d","sa li","fa hmou","di l","9a lek","9a rar","rou na","me ille","bra ss","5a n","mo in","raj ol","mal gre","9i 9","mak ch","yech fik","3id kom","taraji t","tit rou","up l","wak t","d5 el","franca is","yarah mou","5id ma","ya39ou bi","3 ech","4 0","7 b","7 ya","9 ed","a dh","b dit","c ra","h kom","i 5a","i med","l wa","r ed","w r","y zid","ou na","el ka","ch et","ba 9","cha ns","oo l","ech e","di re","m3a ya","ye 9","ca n","ne 3","mab rok","ke y","a3 mal","st in","eeee ee","9al lou","9al leb","sal sel","7am la","der by","oooooooooooooooo oooooooooooooooo","7ka ya","chn ya","8al ya","koo ra","feli citation","b hi","n en","o ri","v re","w 7","ma hom","ch le","na bil","en te","wa f","sa ret","ri e","fa hem","ja zi","di mo","slim e","mou ha","hou kouma","bar ch","kh or","lo bna","ma3 mal","ah lou","bara tli","lel na","yes ta","net mana","9o lek","ko t","mah la","as ma3","nem chi","zin ek","wej hek","yelzem na","len ti","jan na","sn ine","7 seb","c al","d za","j la","o in","y 3aw","ra ja","la ken","la zim","na l9a","ta ba3","le fri","bi ne","fi a","ba lek","ek hdem","si lou","rabi ii","ss et","me 3a","de ya","za 3","bel eh","ken ou","7i war","ro b","min ek","mat 5a","win ta","wa9 teh","kel b","7o b","7o kouma","sel 3a","1 3","2 5","4 ir","7 la","7 is","7 kouma","b c","i rou","n se","r ii","s beh","t mout","u f","w rou","w tf","y is","ta ya7","le g","sa t","ka h","ka li","ka ne","da na","te ha","ca tion","th in","tha l","ma3 lem","nou m","gha di","gha ni","ssa d","mah di","thi s","sba 7","mte3 na","3and k","bour guiba","lab ess","gra ve","monta sar","vv vv","mawjou d","n9o lek","nati ona","manou la","mzi ya","mortaz 9a","5 bar","5 sar","a men","a 3az","e ha","t kar","w ine","y il","y na3","y 9ol","ou ma","li bia","ya hi","3a f","fi ya","fi ne","et haw","sa di","sa louma","ii m","ti s","ja hel","ki fach","bou ra","ca p","is si","ta3 rfou","aaaaaaaa aaaa","st ro","ya7 mi","ww w","bek ri","eu ro","etou nsi","bayou ta","possi ble","1 8","b oo","b ye","c our","j on","y mout","ou a","ma yet","el ou","ya khi","le kher","en core","fi que","in ch","sa mah","es se","cha lla","7a 7","ri tou","bou s","oooo ooo","th r","raj l","enti 5abet","wi a","hed heka","gha n","che 5","wal let","yah ya","par ta","dar ja","afri que","macha lah","dega g","tla3 t","aaaaaa ge","blas tou","musi c","chans on","a leh","b om","e ek","f ha","m tou","r cha","ha jet","la mou","la kin","el kom","li li","ta kh","wa d","aa n","ba ri","in ou","ii h","ti ve","si yesa","fa y","da be","mou h","9a n","kol lou","tha w","lek leb","chou felna","a7 ki","sou m","ber ek","wa7 dou","ala a","mon de","moch kel","n7eb ek","yar7 mek","tab da","baa d","na9 es","sli im","rom dha","3ayel tou","arri ere","resul tat","maro c","youss ef","a ha","a wal","m ba3ed","r ech","ma sou","en sa","wa ssel","fi i","ba ll","ba 3id","in es","om i","ti b","hi chi","ka rah","tou sel","de ha","men kom","zi bi","pa sse","fou ch","an di","ent s","ya3 raf","mer c","wen challah","tra h","as ba","tan na","yah dik","den ia","sin on","5d m","iwa f","naw fel","toun ssi","mli 7","mas2 ou","dro it","e ff","i le","l 5ir","m ba3d","n hib","t dha","t ine","w or","x i","ma ma","ma al","ch k","ch bikom","li bi","3a mal","bi net","et tounsi","es m","ka y","7a cha","ja ri","men nou","ga n","ga ra","kha y","sou ti","iiiiiiii iiii","ali hom","ncha llh","may 7eb","3le hom","mah er","so re9","ble dou","ns ha","mazel t","tas ma3","wo w","ma3ad ch","monta ssar","yons or","jme 3et","mada me","masha llah","birth day","1 7","a rr","a se","a wla","e zz","j ek","n edi","s 3ib","u che","y khali","ma ka","ma ho","na ch","bi lahi","fi t","om ok","om ik","cha kh","7a wel","em ta3","ech koun","lou b","da bet","da 5al","tou nisi","rou ch","rou 7i","kou r","ta3 raf","wi h","you ma","je une","se 7","hed hom","zou la","bara k","ko na","la3 bou","kel met","tas wira","tji bou","ya3ti h","ton es","yyyy yyyy","cc cc","3333 3333","faw zi","9wi ya","deg aaaaaage","pho to","presed ent","3 nd","7 kou","g ne","l eli","t fo","t koul","ha aa","ma ah","li ste","ta 2","ta 5ra","ba ssa","in sha","ka lou","ri m","ni kou","re h","te hel","rou ha","hou kom","5a rjou","ne j","mo st","be ra","dha m","ro hek","ga t","ya3 ml","zou ha","ber joulia","mouch e","win ek","yech ri","fina l","gal b","te7 ki","rou7 k","kle mou","fdha ya7","mag ni","dhaw edi","1 2","5 om","c entre","d kh","f sed","j ee","l s","m fa","n ii","n 7ib","s c","t bi3","v ol","ch mata","ya li","ta j","le tha","le 3bed","ba ss","in ty","7a kem","si li","ki a","il na","re al","kou bi","be z","dha hra","pa role","dou na","lo b","fe 9ou","se 3a","ah l","yo stor","say b","ta7 t","ali ha","ko li","bb j","tal 3ou","ma7 soub","med deb","fer gha","clubi stes","ker tha","e3 lem","gar di","l9a 7ba","clubisti ya","gla is","sama7 ni","5 s","a me","a mel","a gh","f dhi","g r","i wali","k ech","l tounes","n 9oulou","n jibou","y barek","z natir","ou t","li biya","le ken","wa llh","et ran","sa br","es sou","ka na","fa mm","ni que","men o","fou n","bo k","far ha","bla ssa","ko i","het hom","bal di","thi l","tan ba7","yah mi","com ment","9ad er","med em","feh mou","mor dha","fech el","taa mel","ma5 yeb","saa di","ta7i ya","ethaw ra","4 ali","7 om","7 em","9 e","9 ek","9 or","c el","d k","d sl","f aa","h lou","u se","w j","x x","y or","y zi","ma 3an","ch en","ya ss","ta tla3","in ik","cha ri","ti ram","mel yarat","to ire","jou leya","lo w","aaaaaaaa aaa","raj e3","you s","se ra9","se if","kif hom","ena s","he u","ham del","wen ssa","au x","tal 3eb","thi ka","hek i","tel he","tah el","nsi t","jeb t","mna ykin","yal 3ab","hahahaha h","wej h","siya ssa","fach el","bn j","beau tif","5ay ba","sol ta","fem me","mla3 bi","3ass ba","5 iiii","5 maj","b ri","b det","k li","l koul","m ess","o w","s la","s lam","s ghar","t ga","w edh","z wewla","ma tou","ta la3","wa bna","ba rou","ba tta","ka 3","ja mel","ki fi","lou ha","tou m","al o","ca to","mi z","kha bet","se ra","3am let","id ek","bo tola","ssa l","ar jel","say ib","may jich","zz z","ja3 four","yfa dh","sam ba","wwww ww","car di","fu ck","i3 lem","kra heb","jed ou","mafi a","rasou l","magni fique","5 or","b de","b tek","f en","f on","f him","m hom","v ir","v id","w rabbi","y ir","ch eri","3a me","le a","le friki","fi ni","es pe","7a dh","mou sh","de 9","5a trou","ga uche","kk er","fou na","kha lik","lek bir","far kh","net sawer","9o wa","tra ja3","hhhhhhhhhhhhhhhh h","am lou","mara t","dar eb","jom hou","pro gram","ket heb","sayeb na","yr em","lazem na","cu te","yarham ha","yo5 rej","88888888 88888888","slem tek","meille ur","beautif ul","2 i","g j","h yet","k ii","l on","n dhif","p fff","t fih","u h","ou ra","ma si","le mi","le ee","ba gh","er s","hi s","si ba","da ch","da wi","ni fa9","ye 5dmou","men i","ga bes","chi 5","kh li","an o","an ou","raj 3elna","9i ma","ma3 in","man et","vi c","win challah","mta3 kom","inti 5a","mas 5a","ja3 fer","la7 9i9a","ya7 ya","yi b","9ad rek","20 20","bour joulia","sid kom","toi le","to9 3ed","yar7am hom","3ez kom","7ez eb","wjou h","sim ple","trabel si","zwa wla","5 it","9 tal","a g","a cc","a meri","b lou","b kol","d y","d ma","h lek","i zi","j 3","l bou","l flous","m fach","s ii","t 5ali","u e","v r","y seb","y 3inek","z zi","ma ine","ma homch","la ka","la abed","ya kh","bi dha","wa 7ad","aa lik","ba 9i","er ye7i","er ya7i","fa th","ni fe9","al li","9a dem","mo ha","is lem","fou k","kha w","you fa","je web","9i f","ma3 rouf","yar hm","kif kom","jam3i yet","a3 m","ham ma","st ru","tra ba","tna yek","pe ur","mek ech","ale f","bad lou","su per","nas ma3","lib re","t3a wen","ysa ber","blad na","vu e","trou s","nab bara","loo ol","mwa bna","9lou bna","3 m","3 end","4 4","7 ta","b jr","d s","e g","i ha","l mara","m est","n ra","o b","o dwa","p t","s ni","t ma","y dha","ra gh","el 7a","ch har","3a th","wa y","et c","ba ha","ba yna","es ou","cha a","si te","ri te","lah ou","lah keya","tou te","rou hik","mi d","5a mej","3i m","za y","wel l","wel ed","to f","to ha","pa u","dou ha","fou t","se x","hed hy","gha let","say bouna","mta3 na","let na","mas et","wali na","kal lem","bes oin","sta tu","dhi b","yeh lek","sa7a fa","hadha ka","7ab s","wata niya","ene ra","n7ebou k","jm hour","masla7 t","bhe yem","chkou ne","3 sal","7 t","9 aa","c ine","d zi","h keya","i 5dem","l taw","n 3","n c","n k","r k","t 7i","v as","w mat","y hem","ma ke","ra si","el hom","ya rabi","ta dh","ta raj","3a lih","et i","sa ma","es ba","es 7i7","cha ra","ka mil","rou 9","me ra","mi led","5a sa","mo h","mo ez","be hom","vo ila","tha m","dh or","lo 5ra","3am il","3ala mi","a7 zeb","mab r","tet farej","ab d","hel na","war d","der bi","joueur et","gal bi","jah l","shi ha","ya7ki w","hani kom","milli ons","dom mage","19 20","qa tar","5 eb","d ch","d ri","f da","f len","i ti","n 3a","n 7i","o ha","o le","s tu","t j","w lah","ha mou","ha dou","ma wa","ma ti","ma za","ma tan","ra yi","na hi","na ri","3a lim","le ma","bi b","ba tel","ba yrem","es na","cha 9","7a bit","ki ka","lou hichi","il l","re 7","9a bel","3i ba","we y","th ek","dou ch","ga ndou","qu ali","yet farej","ter rain","yes t","hhhhhhhhhhhhhhhh hhh","lkol hom","pe up","wal hi","la7 ram","had ed","mte3 k","hel ek","hahahaha hahahaha","kam mel","riya 7i","yab da","chof t","d5 ol","jj jj","meri em","mle yen","commenta ires","jma3 et","alger ia","jouwer et","dana dik","samah ni","gardi en","program me","2 4","3 t","3 zouza","6 0","8 neya","a ham","a wlad","d edi","f ess","h li","k ine","l 3am","m ze","m da5","n om","n wali","n um","r fo","v za","w s","w fi","w zid","y hez","ma ken","ta d","ta kila","le zim","bi la","fi ih","er heb","cha 3ab","7a seb","fa 5","ja d","lou ken","da d","da t","tou fa","m3a le","9a fila","hou na","mi galo","5a f","5a la","mo 9","3i fa","tha t","zi ed","to h","kh rej","lo k","mar sa","mar ek","tu nsi","3al lem","mer de","say bo","ssi l","so it","ab del","m3 k","5ou h","yara 7","maw dhou","tari 9a","rou7 ha","rass mi","jer ba","3ez ek","8ali a","3aych in","jeu nes","etran ger","famm ech","a bir","b tou","h keyet","i si","i dik","m 7","s ket","t choufou","y ssa","y 7ib","ra aa","ra ssi","ya dh","en 7eb","fi li","in o","in sa","sa 3id","ed e","ech ri","fa z","fa zet","di eu","da rou","tou lou","m3a theb","mou ta","9a dha","hom e","me 3ak","3i na","is sa","tha bet","pa pa","jou n","aaaaaaaa a","fou h","ah san","bo b","hhhhhhhhhhhhhhhh hhhhh","pe ut","3ad ech","ran ce","bb b","jem 3iya","as l","marzou gui","wil la","wil di","ta7a net","eda wla","tfa raj","tem ps","3ab ed","mach ekel","ye7 ki","7as bi","meh di","yarh mo","grou pe","fac eb","kedh b","heu reu","3 sba","a 3lih","b ka","f za","h rab","m 3e","o p","p oo","r b","s ghir","t 9","u tion","ma tion","ta i","ta hia","le m3alem","ba na","in te","in sta","es i","ti kom","ed enya","7a 9ou","ri r","fa ri9","lou lou","di h","ol m","9a tar","rou d","rou ni","me e","de c","de wi","bel li","bel ik","dh b","allah o","ak bir","you sel","you sr","a7 san","kif k","ve ux","bara mej","vi v","vi sion","win o","tra ba7","tna j","9al bek","am l","am mar","wal lit","so w","kkkk k","bil na","yah mik","mes si","brav ou","jeb ou","moch kol","mna yk","twa nssa","pr in","lm ra","yji bou","ver y","ave z","nheb ek","5o ya","yh f","law jou","wak tech","lez m","barnem j","ghi rou","nnnnnnnn nnnnnnnn","mle 3","kach 5a","dema in","enah dha","m5a 5","jama hir","jazi ri","bc p","gandou ra","2 m","3 sa","a bou","b aaaa","b tala","d re","m 7a","m ne","o la","r bou","s ra9","t ed","t 9oulou","v s","v el","y 9ou","y na3mou","z ine","ma kan","li 9","li flous","na jam","ta sir","wa dha7","et er","ba che","ba by","in ek","sa 9i","om e","om our","ka ter","ka lam","fa raj","da lil","rou da","5a t","th b","tha na","dha 3","dha h","ta3 rif","dh ed","pa ys","min kom","lo 5","se ction","ma3 loul","ah lem","gha liya","bara t","ben esba","a3 lech","bla di","mta3 ou","au tre","eeee eee","gh ne","ssi t","mah leha","thi m","rrrr r","mek ch","ab da","bes sif","5i re","rah ma","sal 7ou","nch llh","bour jouliya","tka wer","bl hi","sem ent","fa9 r","jen douba","bravoooo oo","pla ce","cha3 be","yar7am ha","cla sse","dddd dddd","3ej bet","vir us","9 es","a hawka","b ol","b kit","g li","k r","l be","m h","m dr","s bou","w ka","ha bit","el ek","el 5ir","el youm","ya rab","ta le","3a wa","wa nsa","aa r","et kom","ba ji","ba yen","om m","cha raf","cha 3ib","ja t","ni ke","mou sta","9a leb","9a dek","mi eux","de 2","5a dem","mo ta","men k","we f","bech ir","mel e5er","to ch","ama zin","yet kalem","chou r","man na","tar ek","che z","heb ou","hhhhhhhhhhhhhhhh hh","ze z","tr ek","yi h","kal m","5ali h","9ol na","pro fes","ma3a ch","pr end","yka wer","af kar","yaa tik","bor jo","jami a","mri dha","mla yen","sor mek","ple ase","y3a wen","respe c","8al ta","loo l","yo9 3ed","dhe fi","5atr ek","de5 la","champion nat","5om ej","sili ana","peup le","8 ay","a sa","b ki","c le","f m","i 9oulou","k ch","k lou","l zem","m rak","n 9ou","s ech","w enty","y ol","y 5al","ha ba","ma ne","ra be","ra 7i","el ma","el 7a9","ta lla","3a jbou","wa ll","fi sa3","aa h","et wensa","ba i","ba cha","sa lla","hi ka","7a 9a","7a bou","fa sed","eb ou","ki fik","lou n","al 3a","mou 7a","9a na","tha 9a","dha b","dh ech","dh bou","m3ak e","dou m","chi cha","mar ka","ya3 mal","ma3 rou","ber jouliya","met ou","far d","mer cato","mala de","tal 3et","hek ka","5ali w","sba h","mana jem","3mal na","3a9 liya","mari na","zer o","tbarka lah","hamdou llah","roj la","b3adh na","ghou l","ma3andou ch","hamdel lah","faceb ook","3 n","9 ba","b sh","d ii","d hom","f omek","g en","h ta","h mo","j na","k y","k ro","k rima","n hezou","o t","p reu","r ja","r ol","s yed","t goul","w entom","y di","y walli","el ly","li f","3a ni","le y","en nou","sa ref","om ra","er ia","em lou","ja ded","mou wa","mo slim","is la","ji ha","tha her","zi za","wi ou","9i met","a3 mil","uuuu u","ta7 7ana","ba3 dou","cha3b ha","7ou ma","ess eb","mah boul","yi 7","yi zi","ay men","for mation","we7 d","tounsi ya","sah ha","nch l","3om ro","gou lou","tit ro","saha fa","bah ya","ta9 ra","gar con","a5 tana","yez zina","ta5 raw","201 9","barnem ij","milli on","benzar t","chok ri","loo k","flo s","nesta new","aaaaaaaaaaaaaaaaaaaaaaaaaaaaaaaaaaaaaaaaaaaaaaaaaaaaaaaaaaaaaaaaaaaaaaaaaaaaaaaaaaaaaaaaaaaaaaaaaaaaaaaaaaaaaaaaaaaaaaaaaaaaaaaa aaaaaaaaaaaaaaaaaaaaaaaaaaaaaaaaaaaaaaaaaaaaaaaaaaaaaaaaaaaaaaaaaaaaaaaaaaaaaaaaaaaaaaaaaaaaaaaaaaaaaaaaaaaaaaaaaaaaaaaaaaaaaaaa","ep is","2 2","2 ak","4 i","5 ser","a chkoun","b j","b s","h lel","i z","i friki","l 8","l kou","n 3ichou","p ere","s 7","t wenssa","v it","w f","w sel","w 5ay","y 5","z la","ou led","ha ss","ha ssen","ma in","ra ki","ch or","li e","ya 9ra","3a mar","3a lla","3a ref","bi di","wa ri","om ma","es e","er fou","ti w","si si","ri yet","ja ra","da f","slim m","mou n","bou li","bou tou","ca stro","mo j","za boura","bel hom","ee ek","uu k","zi t","ro f","dh na","pa ro","min ik","kh dem","jou waret","barcha a","tar mou","ci te","net farej","gh et","gh riba","ffff f","het heka","lil na","tah er","yed h","kla mek","nah di","kar l","ej did","yeb da","tunisi ens","clubi st","yal 3bou","mazel na","yfa rej","tka lem","wej ha","bu zz","fa9 er","yos r","na7 ki","ghi ra","fem ma","som mes","bbbbbbbb bbbbbbbb","to5 rej","ma3na ha","mous tawa","mafhem tech","amazin g","3 ra","c s","c est","g enera","i 7ib","k tou","r d","s ine","t kou","t hir","t ooo","u sa","w houma","ma kom","ma tar","ch biha","li blad","li dara","na ns","na jeh","ta ka","en fa","bi li","bi zer","wa le","sa 7eb","cha b3a","ka 7","ka rou","fa 9ou","lou k","ol ta","re gar","kou ch","5a mja","mo kh","mo jr","3i r","3i z","3i cha","is ra","tha 7","dha f","ro 7","ro 7ou","dh in","ga li","wi th","ter i5","he y","iiiiiiii i","met ro","pres que","hhhhhhhhhhhhhhhh hhhh","bal f","tal 7is","ser ie","par k","sta d","gu er","su jet","ms ek","wl d","kam la","maj les","bli da","7as ra","3a9 ba","wata nia","ne9 sa","sor m","flouss ek","echa ab","meri te","55 55","mawjou da","massa 5","llllllllllllllll llllllllllllllll","nationa l","mawdhou 3","3 tit","a ne","a nis","g or","j sk","l 2","l koura","l oooooooooooooooo","s yes","t 5al","t 7ot","ma ya3","ma ana","ma 3andi","ra 5","ra ke","ra ssou","la i","li en","na yk","ta 3a","ta fi","ta th","3a cha","wa ssa","sa lu","sa lo","om ni","es si","fa ke","ja yeb","rabi a","lim i","mou 3ar","te au","is e","vo s","zi ka","pa ris","dou rou","chi a","chi bob","kh sara","jou 3","raj ja3","wi k","mm em","se ul","lh e","tek dheb","met ha","mer 6","yo t","net far","chkoun ou","gh t","7ou na","lkol kom","la3 ba","ssi a","cho fo","kkkk kk","jel ha","ched ou","bek i","yna j","ma3a dich","sur tt","nt s","fran k","naf es","theb ou","beh y","na9 sou","msa ta","ssou d","201 1","201 3","mte 3i","naj mou","ghar bia","yheb ou","mosta 9bel","recrutement s","iiiiiiiiii w","ques tion","blh y","3 on","3 il","3 ml","5 wet","a you","a pp","b hou","c lo","d c","d m","e taraji","i er","i sir","l bara","m kha","o c","s top","t b","t ne","t bar","t oooo","t lek","t mani","w fa","w 5a","w fet","y chouf","y bi3","ma hi","ra 8","ra ou","la na","ch om","ch ba3","li d","li ka","li tha","le toile","en ek","en nas","bi ii","wa lou","fi er","ba se","sa 3a","7a ss","ri 2","ri ah","fa u","9a h","9a m","ye jri","ca mera","mi h","men ich","be ja","bel l","mel e","ir heb","dou d","lo gi","fe f","iiiiiiii iii","ben na","wa7 dik","yes tana","ci a","au tres","7ou t","mah le","wali tou","ya7 mik","ser 9a","ma7 leh","7a9 ek","po si","ble hi","med i","wet h","bin zar","im possible","t7 el","da5 il","fran chem","yr in","a5 tak","mka che5","lezem na","5d mo","ex em","gran de","bha yem","pri ve","to9 tel","naj la","nh b","nh bk","i5 dim","maryou ma","7yet i","rwa7 kom","sada9 ni","direc t","5 tar","b si","b kir","d dem","f ch","h ol","i 7a","i jam3iya","i 9oul","k res","k ber","k lm","l kalb","m 6","n zid","n enta","o ch","r 9ou","s hou","v rais","w wa","y 9","ha cha","ma 3and","ma kich","ra c","ra cha7","la ss","la tion","la yem","ch in","ch wya","li ma","na ha","ya w","bi ni","wa b","wa ket","fi re","cha hid","ti mchi","9a 7","9a ch","hom ech","kou na","mi 3","mi bou","za f","za za","lik es","wel ou","dh en","allah oma","lo tef","aaaaaaaa aaaaa","ent ii","kha wa","kha oula","3li ya","enti on","ak wa","ak ter","you slou","se y","ter i","jam3i tou","bo ha","bo toula","tar f","3al mou","ar cha","a3 tini","yo k","mil yar","yes s","yek h","gh or","gh oneya","ko le","am n","tal 3ab","as lan","gu a","va mos","marzou gi","yeb ki","jom hor","im chi","nch la","da5 la","a9 ra","the zou","fara 7","ver sion","yfa dhel","ant om","siya si","bravoooo ooo","jay ch","yef hmou","tor 7","mte 3ik","ghar bi","l3 bou","laz mou","9ab lou","b3adh kom","siyes sa","sy st","yelz mou","bhe ma","wwwwww iiiiiiiiiiw","epis ode","paro les","5 e","9 ha","c ta","c ent","f h","f yh","k ya","l min","m say","t le","u ma","w fe","x e","y 7i","y 3ich","ou ssa","ma fa","ra te","ch 3b","ta z","ta ge","le 5ra","bi e","wa th","wa kahaw","fi fa","ba 3ad","in vi","in san","sa bet","er r","ka mal","ka wer","ka theb","si s","ri ha","fa ker","da li","ni kel","rou m","rou hi","rou ge","ca f","de ci","vo i","ji a","ji r","ken ek","dha n","dha wadi","ta3 mlo","dh em","m3ak k","chi m","lu ck","jou ret","mar yem","fe 3l","wi d","wi ch","tek teb","flou se","yo h","ta7 7an","wen chalah","ffff ff","bled ek","tet 3ada","am tha","ay em","sar dina","bin ha","pour quoi","pro fil","mana dher","7am dou","pi e","da5 l","tak rah","zar di","africa n","ysa b","iji bou","mis kina","saw t","math lou","blas tek","norma le","gggg gggg","nadh ef","arbi tre","bidou n","comp te","ori g","dza yer","euro pe","cour s","dabe gh","heureu sement","1 00000000","3 ziz","4 lfa","7 ke","a p","a 5i","b 9i","d or","d eli","e zi","f g","l ta","l klem","l 3ab","m chou","n 5a","n dhi","t 3ad","u el","v eri","v ille","ma te","ma lek","el k","el ghalia","li ber","en ess","bi da","aa nd","ka nou","ka ml","si lm","ri w","ri ch","fa ri","al ha","te e","rou ba","kou met","mi la","5a ss","ne wi","be 9","be e","we hid","is m","za ri","bel kom","nes ma3","ga dafi","ga defi","jou lya","fe ya","fe at","lek lam","res te","7eb ou","3am lo","sou d","he f","bo s","tar dou","tar biya","far 9","a3 ml","yo 7kom","na3 tik","ko ma","con ter","la3 eb","wah dou","tel lement","7o tou","mes h","com men","kar hba","jeb et","ay tem","7ad ed","dd d","fr j","nhar ek","7am di","3ay chou","3ay let","da5 lou","tit res","eh na","nem ent","lazem ha","jour na","ra7 ma","kor za","wwww wwww","hmd l","dakh el","kara kou","bni na","ykha lik","att ention","sraf t","than k","rie 7i","binet na","se7 li","insha llah","2m 1","lo5 rin","franchem ent","exem ple","3 ti","5 es","8 0","b 7","b di","e zawali","f li","g bal","i 5alik","j beli","m 9a","s pe","t 3i","u a","v ou","w 9a","w est","y ti","y ine","ma 9a","ma yes","el koura","na je7","ya j","ya sa","ta leb","3a le5er","en n","en ne","wa 3lik","ba ka","er jal","cha dit","cha bab","ka war","7a ll","7a chek","fa dha","ja bet","da oula","ni w","hom mes","rou n","ca de","ca son","me ya","mi da","be at","is ti","is lam","bel ou","zi zi","dh ef","dou ble","wi na","se 5","sou k","man dher","zou l","fri 9","mat ri","no k","yo ch","ham la","do k","net farjou","mon sef","ssi lou","wa9 ef","cho se","rrrr rr","nah ki","5ali hom","for ca","wil l","ket hb","eri e","3ay chek","su pp","mazel ou","beb e","teb da","son g","fara 5","ta7ki w","taa ref","7as bou","8a let","continu e","zo kom","yezzi w","sob 7an","person ne","dinar s","cro is","mze ya","3 na","3 mar","7 kem","a mina","a mir","d rou","e a","h es","l li","l 3ou","l ko","m j","m oo","m tha","n kounou","p li","s ter","t z","t ban","y kom","y 3in","ha ki","ha kom","ma to","ma na3","ra ma","ra th","ra vi","ra yek","ra jal","la aa","el em","li 7","ta taw","en ni","en ness","bi ba","bi 3ou","aa sba","et hom","sa hel","sa meh","sa uf","ek il","ka th","ja ni","da 7","tou b","al lez","mou sal","te jri","9a li","9a dh","kou k","me zi","me houch","bar vo","za ret","bel 3id","ken e","to na","ta3 lim","ro h","ga ta3","chi hem","kh e","kh w","jou d","aaaaaaaa aaaaaa","yet ek","ma3 mel","7eb ech","taw ra","flou sik","vi er","oooooooo oo","ze yd","am thel","yi mchi","tel hom","yed ek","sta na","ay na","sara 7a","tab ka","sah by","t7 es","su re","ten ja7","sa7 7a","3ma let","wl hi","yji k","sse ma","ly bia","ykoun ou","sad 9ou","gra tu","ne9 fou","poli ti","pri s","ma9 hour","int om","dhar bet","mosta 9","anni f","hamdou lah","mo5 ek","ele ction","7ok m","la7a sa","fo9 ma","felicitation s","khor mo","pau vre","m3atheb hom","profes sion","3 k","4 ar","7 ra","7 aa","8 oul","9 3a","9 sar","a si","a wil","a 3lihom","b d","b kom","c ur","d 9i9a","f c","g ens","i es","i jib","l tou","l beji","n ta3","n zidou","o mak","r ut","s ok","w sa","w taw","y dik","z is","ma 3andek","la kom","li ve","na ykou","na l3bou","en o","wa fi","fi kou","et ek","ba zoula","cha ms","ti e","ri jel","ki fah","di da","mou rad","rou 7o","ye 5ou","ye ux","me hich","mi bouna","de na","5a les","mo 7","men na","we z","or o","bel lah","tha 3","tha 9","ken t","ga s","an glais","mal heureusement","kif ch","ve z","jam3i ti","tar d","yo st","yek teb","tna 7i","9al ha","may ji","wal d","wa9 tou","par le","ma7 le","sel em","med ec","mte3 hom","va is","dhi a","mna wer","sara 9","yer ham","hab tou","ten i","gi e","na9 ra","3ak s","bli d","l3a sba","bor jouliya","o5 rin","fes ed","weh d","mezel t","akh er","kle mik","fad dina","fan en","ense ur","morta dha","ssssssss ssssssss","tunisien ne","no9 ta","radi o","tnek et","3ama liya","dhh or","loooo ol","tounisi a","quali te","poo p","2 1","5 00","b sou","b kolha","c et","g le","h ena","i 9a","j dod","k ma","l g","l lem","m lih","n da","n thi","p ire","r ra","s beb","t bou","t la7","t 3eb","w nchallah","y m","y kon","ou el","ha i","ha wa","ra pp","la ya","la men","na ar","ya hia","ta c","ta feh","bi llah","et hi","om g","es sa7a","ii s","ti me","ka ka","7a wi","ri dh","ri 2a","ech ou","fa krou","fa chal","lou mour","di ri","da ima","mou naf","9a lik","ne fhem","uu r","dha bhom","3la ha","ta3 rf","7i chi","dou n","raj 3o","se hla","hed houma","ya3 koubi","res pon","ah ki","fih e","les h","jam3i yetna","no 5","flou ssou","ar gent","mer o","a3 ref","kan zari","bla ch","wala w","ham d","yes ir","na3 ti","net ha","yek hd","tna jmou","hhhhhhhhhhhhhhhh hhhhhh","mah mou","wah ret","tah bet","jeb ha","9ad rou","kon na","lha 9","9ol o","im por","3aw dou","tfa d","fhem t","ten u","ey h","hahahaha hah","nor d","t3a da","na9 sin","det h","bor joulia","mmmmmmmm mmmm","nar j3ou","av anti","hor s","na7 kiw","sia sa","lez mou","ner b7ou","fdha 7","mili eu","cla sh","9ab lek","mla3 bia","leur s","makh yeb","hadh eka","ara be","7lou wa","9aher hom","wor k","2 al","3 jebni","5 6","5 mis","5 iiir","8 i","a 8","a yy","b aaa","c ul","d 3a","d 9ou","f tou","i y","l 3bed","m da","m ol","n 9","n 7a","n 9a","p es","s bi","s wi","s re9","s 7a7","s 3iba","t za","t wal","w 9","w k","y sou","y moutou","z bar","ou ssema","ma u","ma 3la","la st","el o","li da","li tou","na th","ya ma","ya la","ya haf","3a hd","le ti","en ch","wa g","wa aa","wa 7a","in si","sa s","sa wet","ek i","em ma","ja bo","ki lab","di ra","tou ri","tou lha","re pon","9a nat","ye ee","hou lna","mi sel","mi galou","de puis","5a yef","mo 5ou","is te","or d","bel ha","nes ba","lik lem","rab ba","rab yy","dh et","dh kom","fe z","fe 3el","an ne","an dha","tu ni","3li ik","3b o","yet farjou","9ou wa","nou wa","3am ne","kif na","ena bara","sou s","sou ra","sou ri","tek seb","man de","fri qui","mat 7","mat ech","mat 5ali","bo to","far j","3al eli","ar ti","na3 mlo","gh naya","mas r","tra ji","mech ya","tna jim","pe u","jem 3ia","tal fza","mn t","had ded","ram zi","5ali t","war 9a","pro du","iiiiiiiiiiiiiiii iiiiiiii","77 7","ina l","ina jem","7am ra","hedhi ka","rjel ha","tas wir","ju in","fet na","nheb ouk","fech la","zin k","teh ki","5d ma","ex peri","av ance","ma5 lou","ma9 boula","d5 lou","tay 7ou","7k mou","iwa f9ek","i3 ti","i7eb ou","yon ser","zah rouni","tam thil","hka ya","pffff f","mkach 5a","resul ta","ndha f","too p","frer et","loooo l","beleh y","statu t","dri di","preu ve","2 eme","3 rab","3 ine","5 is","7 ra9","9 d","a ri","a wl","b kolna","c r","e ja","e za","e sa7a","f rr","f hm","h lowa","i g","i chi","j bo","l w","l z","l boutoula","m siba","n koun","o il","r gui","s gha","s wis","t iiii","t gha","t gou","w zir","y 7ot","y hanikom","z 3am","ma 2","ma ou","ma il","ma man","ra mi","ra tion","el khir","ch rit","na 5","na y","na 7a","na si","na jah","ta fa","ta xi","bi 7a","wa 5","wa sil","et el","sa le","sa rek","sa war","cha t","hi jab","ka 3b","ka hba","7a bes","ech i","fa kh","fa con","ki ya","ki leb","da her","tou z","tou che","il t","mou barek","bou hom","mi bon","bra him","5a yr","mo wa","mo da","lem ra","tha k","rab 3a","7i m","chi t","fe el","kha b","kha n","kha led","mal 9it","se yeb","ma3 raf","chou hada","3ala li","a7 ssen","yar bi","ur gent","sou tek","he ur","no wa","yo dh","say bouh","ta7 na","mta3 hom","wen i","9o lik","mas lah","fik ra","la7 kaya","had ra","wah d","wah er","bil 7a9","yah fed","bes m","3e ya","iii in","incha allah","pro te","kil 3ada","jib ni","3aw nek","mach in","5ed met","t3a di","tka mel","wej hou","cha3 ra","enna bara","mez yen","hadhi ka","to9 3od","uuu h","dhar ba","sl t","9od dem","rwe7 hom","pet it","fir st","gre at","zzzzzzzz zzzzzzzz","9el et","0000000000000000 0000000000000000","chab 3an","nu mero","nenta5 eb","7aya wen","far7a nin","tkar kira","fdhi 7a","slam tek","espe rance","5asa tan","mle3 bi","tooo p","salu t","cason i","3 da","7 ed","a vo","a mar","a mour","b enti","e hom","e ji","e yy","e jam3eya","l le","m ya","m ti","n mou","n jib","p en","s rou","s pon","t yy","t badel","u ni","w hat","y ne","z il","ha 3","ha de","ma fih","ma it","ma st","ma thel","ra wa7","la la","la 7as","el 9a","ch mou","ch weya","3a trous","le kh","en har","en gli","fi hh","fi 9o","fi houm","in stru","sa kh","sa yab","es er","ti m","ti ma","ed dawla","fa ss","fa nn","fa ce","eb 3ed","tou ra","al le","m3a ll","re na","9a tel","rou ma","hou lik","5a ssa","5a mem","ne 5","be cha","is mou","th ed","uu h","dha fi","jou ar","ama m","3li koum","yet 7a","hed h","dem o","ena ri","sou sa","mat chou","vi pa","ba3 da","let te","ko lek","mas si","hhhhhhhhhhhhhhhh hhhhhhhh","hal 9a","har eb","ssi ya","ja3 far","yah fad","5i tab","5ali ha","dhi m","yna jmou","sara ha","tes ta","maw 9ef","hab t","pr emi","teb ki","af faire","te7 chi","bu s","3et h","rec rut","7ar b","aid kom","5ay fin","sli iim","3ali kom","mis kin","uuu k","az ber","thab ti","sma3 t","8ali ya","hka yet","att end","mams tek","kkkkkkkkkkkkkkkk kkkkkkkkkkkkkkkk","touni ss","puis que","9999 9999","peri ode","dimo 9ra","sc enari","agh la","bizer te","logi que","oussa ma","karakou z","cade au","experi ence","2 ta","3 or","3 jeb","7 be","8 odwa","a hh","a tawa","b 3d","c elle","c rea","d da","e zouz","f s","i cha3b","j ra","k barat","l 9i","l leh","m ro","n ja","s lu","s 8ar","t te","t kon","w ii","y berek","z ee","ha ll","ma lem","ma ji","ma zou","ma ghir","el lah","el bled","ch il","ch bihom","li i","na i","ya tik","ta ou","ta aa","ta rr","ta fri","3a ra","le vel","aa mel","ba g","ba da","ba char","sa de9","om mou","es saha","er rjel","cha w","ti sad","hi ra","em ha","ri tha","ri dha","fa kar","lou ghet","da di","ni r","ol na","mou zika","te 5ou","te feh","9a hwa","bou t","bou ni","rou ho","mi zi","5a ri","5a let","ne y","bel la","ff er","wel e","to il","to 7kom","ta3 m","ro 7o","chi k","slou m","mar to","an nou","kha s","kha yeb","qu and","raj e","wi ja","yet ka","hed he","chou k","yar j3ou","kif h","fil s","he bi","he he","man dh","zou na","gha nouchi","ber ik","tar ji","met e","met et","a3 da","mil yarat","ta7 il","yes r","mta3 ha","yy ek","brabi i","9o s","9al lek","may hem","tet ha","ess o","wal din","wa9 fou","thi 9et","as el","te3 jebni","had hom","chouf o","7o gra","ma7 lekom","mak on","po ste","sh koun","9ad dech","wled na","mana ch","3mal ha","fer e","sah li","yal 9a","zar zis","yfa d","beh in","tla3 et","ye7 mi","sid na","joum hou","tari kh","8a di","aw le","o5 ti","video s","ne9 es","jan vier","cha5 s","zo z","ani me","yas ma3","cu jet","kle mi","tla wej","yarham hom","ps y","cheb eb","rouh k","rwe7 na","ita lia","siyes i","jor et","projet s","mams et","yarh mek","yare 7mou","hath eka","y3aw nek","insta gram","3 tou","5 el","5 rou","7 bou","7 lel","8 oneya","a bi","a ti","e char","e jam3ya","f na","g ga","i ed","i m3a","n raw","p k","r ha","r wa","s 8ir","t 9ar","t farjou","u b","w oo","w 7a","y enta5","z bi","ou ha","ha wla","ma qu","ra jou","ra houm","el wa","el leh","ch rab","ch 3ar","ch beha","na d","na nt","ta yah","ta yer","en heb","en nahda","bi le","bi nou","wa a","fi ik","fi koum","om ri","er riahi","er yahi","hi z","7a ssa","7a silou","em bre","ri 7a","fa ou","fa rik","ki dhb","lou bna","lou 8a","al wa","al 3ab","m3a mer","re 3","kou ya","me ha","de hom","ne z","mo che","3i med","be ba","be yen","ji k","ji bilna","tha a","zi b","rab b","chi heb","mar ki","fe yda","kha rej","raj aa","wi t","ak thir","se h","9ou ch","9i 9i","ya3 mlo","ah ssen","sou l","taw la","bo maye","mabrou uuk","ben e","met i","win kom","win touma","ar t","ala m","bla ss","ta7 et","do mage","na3 raf","au c","la3 bad","bal 3ou","la7 zeb","cho hra","wah f","yi m","hak em","ma7 lak","des ole","mr 6","incha lh","ched in","dhi 3","9ol tou","ach ref","twa ri","sur tou","uuuuuuuu uuuu","yezi k","hada ka","ssss s","choufou lna","t3a ni","af lem","kam lo","co te","a5 bar","sid hom","teur s","tahki w","tay ra","az ma","mta 3i","9ra ya","e5 ti","wle di","ooooo p","sai que","bravoooooooo o","champi ona","musi ca","3aj la","yelz mek","masla7 et","la7a ssa","ges te","sa9 si","fre e","4al ya","lenti 5abet","eff ec","yest 7a9","omni ti","2 6","5 tr","7 ki","9 er","a mou","a 5dem","d ji","f 3ou","f omha","h kouma","j t","j eni","j bni","l bi","l ham","l youma","m ii","m eb","n he","n ine","n sh","s p","s tan","w ta","w nchalah","y tha","y 3adi","y khal","z on","z oni","ou bli","ha silou","ma 8","ma komch","ra wah","la 5","la j","el ba","ch ii","na yik","ta sa","ta sta","3a fa","en tou","en ia","wa nt","fi s","aa bed","ba hia","sa dek","sa leh","es sid","ka la","ka bir","ed in","oo ol","7a sa","ri yehi","ki le","ki fe","da rek","da bat","al 3eb","lim e","m3a dhabhom","re jel","mou da","te ek","9a 3id","bou tola","ss ek","ca in","ca pi","de ek","mo hem","3i da","be u","is mha","za k","ji ya","ji bo","ji mla","ee el","tha la","dha ou","rab ha","dh ha","fou l","ama ra","ak er","ak hi","you ns","yet 3ada","je yeb","se maine","3am na","3ala 9al","3ala miya","yar 7a","tek el","zou k","jam3i tek","mat jich","ben dir","wa7 ch","chay y","3ou m","bla bla","mil l","oooooooo ooo","mas 5in","mech ia","3ad na","la3 rab","ran t","ess er","ssi on","tal 3a","tal vza","so d","so ci","tan jah","mak boula","kar tha","m3 lm","for ce","tin g","kon et","maa kom","n7eb bou","tunisi an","pro b","tes ma3","tfa ker","tfa krou","lk bir","mor t","yal zem","da5 let","der ni","mazel et","edi o","ad el","gi ba","5ed mou","yaa mel","por no","9a3 d","mka chakh","elle ment","3el mi","8a leb","cha3 bi","jami la","mri th","yyyy y","ifa dh","lez mek","i7 tira","wes let","jaa fer","menta lite","e5 r","nta ba3","faw 9a","faw dha","gla yeb","iiiiiiiiiiiiiiiiiiiiiiiiiiiiiiii iiiiiiiiiiiiiiiiiiiiiiiiiiiiiiii","illa ge","matha l","flo w","rwa7 hom","tbi b","ves ti","blaset ha","titrou wet","maal lem","simple ment","3awa tef","titro wet","boutou let","toooo p","3 9","5 ine","5 rit","7 9i9","7 low","8 irou","a ou","a kal","b 9a","b say","d khal","e zaweli","h w","h ke","i bi","i kha","i zid","k bel","k eli","l ho","l wakil","n koul","n hab","n hez","q i","r iii","r be7","r weh","s be","t ma3","t 3ar","t sar","v edio","w tawa","w kan","w cha3b","w rah","y 5dem","ma 9al","ma 3andhom","ra ka","ra ak","la wa7","el 2","li ss","li llah","na ik","ta 9a","le ek","le ni","en san","en nour","wa lo","wa wla","fi tna","ba tt","ba yer","er ou","er yehi","hi chem","ka ss","7a bina","7a dher","ja did","di vision","da ma","re vol","mou 3a","mou hamed","hom m","rou 7a","rou ss","me ta3","de 3","mo ra","men ech","bar r","bar ed","be yna","tha h","zi do","ro 7i","ro 7k","chi 3ar","kh eb","mar t","an sa","you h","yet ha","ma3 nd","ter be7","kif kif","sou ha","sou 2el","man fou","mat kha","bo 3","leb la","ke z","ar jou","ar masta","mer e","kan t","ci en","bet ha","9o ffa","gh on","mas rou","pe ux","am ri","as es","wah dik","ya7 chi","yi 5dim","par ler","3e la","mes kine","m3 o","moch k","mte3 ha","houm ch","ej jam3ia","5ou k","maa ha","maa dech","yen ja7","kil na","yer hmou","yeh mik","fr 7ou","fhem tech","rais na","ywa f9","nas m3ou","han na","mach ya","ly ri","nsa w","yaa ni","ra2is na","ysa hel","tari 9","wou 3oud","pla teau","t5a f","normal ment","ifa rej","lat rab","n7 bk","wn ti","pet rol","sai ed","dhaher li","kara ma","ycha fiha","champi ons","yehdi kom","3ayel tek","pffff ff","vote z","mkach 5in","rrrrrrrrrrrrrrrr rrrrrrrrrrrrrrrr","rea ction","adh eka","mat5a fech","yass ine","enfa nts","mibou ne","ndhi fa","cur va","nthi f","3amne wel","effec tif","2 l","7 il","7 mo","a slou","b 7ar","e i","e ba","e fa","e ver","e ta7ana","f dh","g ri","h ne","i ba","i hez","i 3lam","j wa","j 3o","k ri","k hom","l ca","l film","l oooooo","n dem","n gol","r t","s he","s wa7","t ssa","v ent","w lla","w barra","y kh","y zidou","z 3a","ma di","ma ssoud","ra ya","ra gued","el koul","el hiwar","ch rif","ya ta","ya ssa","ta ba","ta ref","ta ire","ta feha","3a ti","3a fat","le 5","le o","en our","wa ra","wa da","et ti","sa ket","sa le7","ek bes","ii 7","ka mlou","ka dech","7a si","7a th","7a lla","7a let","7a tit","fa is","ja me","di f","da s","da ne","da wer","ni m","tou k","al llah","il mou","te 7ou","9a k","ca m","mi le","mi zel","5a lou","mo saique","men es","3i cho","lem fach","za tla","za 3im","th or","tha mma","mel le5er","rab et","to gh","dou ra","min k","min nek","ll la","eli t","chi hemek","kh in","kh raj","lo ma","mar k","qu elle","ama ri","mal 9i","ho p","yet far","9i d","ya3 t","ter mtek","dem i","yar ha","sou 9","tounes na","mat es","leb sa","flou sse","met na","che 9","3al li","lel hom","bla dou","na3 r","ko la","ko dem","tra cha7","mech in","tna jam","pres sion","3ad el","ze 9","ess 7i7","har ba","mah leh","mah lekom","mah zla","wal dek","wa9 fa","cho i","kkkk kkk","ser 9","kel em","7a9 na","com e","nsi tou","llll l","jeb na","gu el","iii h","9ad mou","pro po","tes tana","tes tehel","mana j","yer 7mou","jo eur","nhar in","br oo","zeb la","wl hh","ul tra","elkol l","maj d","na9 sa","ye7 mik","ray is","bu z","3et ha","l9a net","hatha ka","mt k","f9 in","yelzem ha","mos lmin","bor hen","nar d","le7 keya","jan douba","naj mo","maf hm","mezel ou","hmd lh","mta 3ik","3as ma","yo5 roj","yo9 3od","laz mek","ych fih","nikom ek","vie w","sob han","neb ki","publi que","nka mlou","to5 roj","mk ch","siyes si","ywaf 9ik","nji bo","mas2 oul","hihi hihi","mom ken","yich fih","gir l","waldi h","tjr s","bhi ma","batta la","taraj ji","tnaj jem","prin ci","3ejbet ni","ma3rou fa","esseb si","mojr em","5 ef","7 ch","8 ira","9 da","9 weya","a wa","a dha","a rab","a 3li","a ge","b ref","b dina","h bel","j d","j bal","j bali","l 4","l weh","m zel","o mar","p c","r we","r khi","s ch","s ee","t chid","w d","w ro","w bara","w 3ed","w ooo","y ro","z na","z or","ha li","ma ja","ra kk","la bas","ch r","li lah","na g","na bi","na ja7","ya 5ra","ta re","ta ss","ta 3i","ta gh","3a ll","3a louch","bi nek","et heb","ba ni","ba lik","es mek","er ra","er hab","cha f","cha hed","ti 3","hi na","ka ma","ka dha","ka deb","7a ba","fa la","fa ns","eb hom","ja lha","lah om","di me","da ber","da mna","m3a aa","m3a dech","re gi","mou salsel","9a tha","hom lek","rou sna","kol t","kol li","kol lo","ye heb","bra h","ne yek","mo to","mo salsel","bar lamen","we cha3b","we jeh","oooo l","th lou","lik leb","wel din","7i jeb","7i zb","dh rab","pa para","chi 5a","chi kha","kh yr","kh iir","ak el","you rid","yet i","je na","se u","9ou 9","9i ya","ma3 netha","a7 wel","ur s","sou h","tek h","man 7eb","zou r","mat loub","bo na","yes tehel","do s","do pe","bet kom","9o fa","ko d","9al bou","hhhhhhhhhhhhhhhh hhhhhhh","het h","3ad da","may el","ze yid","la7 dha","tr em","jem 3i","so fi","as 7ab","te3 ba","san t","ab tal","3ar fa","7o riya","tech nique","bik ri","com pris","5al 9","gu ys","klem k","klem ha","kon tou","5ou na","dar na","dar hom","bin t","seb ssi","bna ya","pro cha","ma3a na","tes h","3mal tha","br k","ms kina","hahahaha haha","ra9 btek","ssss ss","ju s","ver s","yfa dhal","por t","jaw na","e3 ti","wa9t eli","khou h","ban k","l3a ma","l3a lem","sid ent","msa d","lezem ha","5o bz","jbou ch","tk t","has bi","kor ssi","3a9 li","ne9 sin","beau te","hadi ka","jan joun","201 5","201 6","naj m","milli ar","tay ba","y3 tik","hathi ka","rass ek","sala fi","brou k","os kot","nos brou","uuuuuuuuuuuuuuuu uuuuuuuuuuuuuuuu","habi b","n9o lik","b3adh ha","dna dik","nati ja","mla3 biya","wadh 3","de5 el","pppp pppp","tttttttt tttttttt","dhek ra","rayes s","belleh y","linti 5abet","milliard s","lea gue","nwali w","borjo liya","mouwa ten","isla mi","msek en","syst eme","nikel hom","maqu illage","revol ution","lyri cs","7 ine","7 dith","7 leybi","a tha","a ziz","c l","d bou","d nc","e et","e lah","e rais","f ee","f ommek","i 3inek","j ma","l d","l mar","l elli","l khir","l blad","n b","n ssi","n sal","o g","o ver","s d","s le","s po","t 5","t g","t ri9","w ni","w bech","w may","w ba3d","y j","y bou","y enta","y mchi","y tab3ou","ou er","ha bes","ha louma","ma 5ir","ra peur","la ti","ch ra","ch on","li gue","ta rou","ta yeb","3a win","le 3b","le toil","bi tha","bi rasmi","bi lite","wa ka","wa slou","wa rina","wa ni3ma","fi nou","fi del","et 7in","et wansa","ba gra","sa heb","sa kker","om om","cha ba","ka yen","ka der","ka lib","ed dine","si lim","fa ssa","lou ta","lah in","di ha","rabi 3","m3a aaaa","il o","re ali","mou hem","te w","9a yma","bou 3","rou b","hou ta","kou h","kou ne","me 3alem","mi ma","de cu","5a le","5a raj","mo de","mo tro","men e","bar rou","be j","be lah","za d","za bi","vo is","oooo ol","th mer","wel dek","rab le","ta3 wi","7i ya","ro hi","ro 7ik","ga z","kha tr","slouma a","ak tar","je c","clu be","9ou b3a","9i ch","res s","ter met","ah el","kif o","sou ch","sou rya","he wya","he yla","man 9olek","ber k","ce p","no ss","mouch kla","3al m","3ou h","a3 leh","yo d5el","ta7 ou","ta7 founa","mta3 k","bet h","9o let","rajel l","inti deb","gh rab","ko th","mas k","mas o","mas ma3","tra n","tna ber","tna ket","hhhhhhhhhhhhhhhh hhhhhhhhhh","ze f","ze h","tet e","am ra","zz el","ssi f","bil leh","din ek","ret ha","ble ss","iii m","ay ya","wer teni","ras ha","pro fi","pro gra","we7 na","fer 8a","maw thou","3ay cha","nnnn nn","su b","su l","wra ha","ywa fa9","macha lla","ta3mel ha","sam 7ou","sam sara","sam soum","maj less","jaw ek","9a3 dou","9a3 dine","l3a da","nech ri","boun tou","ghir ek","f9 ir","8a ni","tef ha","jen jon","nak rah","yk eb","and na","ta5 bou","t5a mem","hat hom","y7 el","jouer ette","pri se","yak rah","echa beb","saw rou","9ar wi","iiiiii t","la9 ta","cheb bi","3en dek","ked eb","ya5 raw","5ar jet","sai di","fadh el","lt eli","musi que","7aj ja","taja mo3","7ok oma","ftha ya7","d5al t","7aw lou","vvvv vvvv","ghan nouchi","lamou chia","nsha lah","farha nin","masi 5","cine ma","respec te","eria hi","gor ge","chom pi","deci sion","tataw in","respon sa","engli sh","jouar et","scenari o","tafri ka","faou zi","prob lem","2 7","3 z","8 riba","9 5","9 ii","9 lil","a dem","a had","b kolkom","e eb","f omou","g ek","g rib","h da","h bat","i th","i jou","i 5al","k 2","k u","k eka","m 5","m ba","m sh","m waher","p ff","p ret","s oo","t rabi","t chi","t sal","t bad","t sayeb","t nech","u ch","w 3la","w sa5","ha kk","ha lek","ha tem","ma zem","ma 5i","ma ta3ref","ma 8ir","ma ye3","el u","el jam3iya","ch m","ch ni","ch fama","na aa","na is","na la3bou","ta wel","3a rabi","le qui","le 3ba","bi 7","bi lah","bi zar","wa 7i","fi ii","fi ere","et 7eb","ba bou","sa da","sa ff","sa rah","om or","om mik","es eb","er ek","cha dou","cha din","7a yel","em in","em te3","si ra","fa rah","fa yda","ki b","ki fak","lou 7ichi","ni ko","al mo","al ler","rabi iii","m3a thab","m3a aak","slim mm","9a ss","ye ma","ye ah","ye ar","ye cer","hou di","de e","5a yen","5a msa","bar ca","be gh","lem na","we 3a","nes tan","tha ge","wel le","ta3 bir","ro 9","ir jel","ir hab","dou da","ga y","ga me","lu net","fou s","rr eb","kha lil","qu er","qu ement","raj li","mal 9a","ho na","yet hom","yet rabba","je el","9i m","nou slou","ria dh","he zz","mat najem","gha da","ber cha","met t","wa7 lek","5ir lek","say d","ta7 kou","ba3 th","bet bi3a","inti dabet","gh er","gh rib","mas h","tra ck","tet kalem","hal na","bal hom","har b","mah lak","tal ka","mn ha","tan fa3","lil hom","had houma","wah kom","rrrr rrr","din i","jeb hom","wer tani","3in ina","ns eb","ef hem","n7eb o","jom 3a","war ri","feh min","koul na","3id k","jo yeux","twa hach","ale ha","lk or","t7 b","t7 ine","nnnn n","3andou ch","encha lh","du bai","af fa","maj ech","ib n","3ak es","dis likes","yab ka","ya3ti ha","ton is","mos lem","khi t","bro jla","ex celle","ta5 rou","enna ss","mez wed","car thage","monta ge","sli mani","vu es","fah min","3mor na","honte ux","wle dha","entra in","day ra","mim tek","na3rfou h","bravoooooooo oooo","ye5 dim","fila stin","93ad t","kila bou","b3ath na","ta7i a","ywaf kek","nesta nou","hhhhhhhhhhhhhhhhhhhhhhhhhhhhhhhhhhhhhhhhhhhhhhhhhhhhhhhhhhhhhhhh hhhhhhhhhhhhhhhhhhhhhhhhhhhhhhhhhhhhhhhhhhhhhhhhhhhhhhhhhhhhhhhh","test 7a9","titrou et","chle ka","chle yek","mas2ou lin","nsha llah","cccc cccc","zouha ir","dkh ol","vic toire","ameri ca","ghne yet","moj tama3","karou i","orig inal","veri te","feel ing","recrut ment","gorge ous","3 loulou","7 9","9 dima","9 sir","9 7ba","a dhi","a mor","b 2","b ba","c it","c mn","e em","e chay","e 5i","f d","h mek","i na3","l slim","l ber","l jam3ia","l koum","l barra","l fehri","l mochkla","m ni","m ga","n dh","n iii","n ched","n end","n raj3ou","n moutou","o st","p ha","r ch",
[...]
